{"鳯": 248926, "▁leyes": 172876, "▁Spray": 166564, "病毒": 66294, "▁gwefan": 138361, "▁여러": 37747, "▁atinge": 125028, "▁полной": 129918, "▁Karnataka": 105099, "▁prostor": 12120, "▁ಕ್ಲ": 121652, "▁დასახ": 163146, "توحيد": 173499, "▁мэдэгд": 88463, "قاز": 196395, "▁eco": 49347, "▁Nations": 145704, "獲": 25200, "▁නගරය": 174441, "▁động": 2613, "닫": 226977, "frau": 87040, "ಶು": 130436, "▁μεγάλου": 209463, "ставку": 53436, "배송": 163794, "▁نظارت": 84975, "▁съответни": 143506, "網購": 165875, "tato": 28647, "mpah": 27780, "ცოცხ": 160614, "▁landing": 132260, "▁rehetra": 23843, "ज़र": 177882, "ывал": 140123, "▁ਖਾਸ": 177285, "愿意": 60522, "ার": 12229, "▁հնչ": 144831, "Live": 70567, "zon": 5870, "▁zaměstnanců": 237140, "▁cyklist": 132177, "මේන්තු": 242184, "▁यांची": 75159, "▁jonkun": 152318, "陷": 140294, "▁საიდუმლო": 156144, "▁плям": 192796, "doras": 48174, "▁xestión": 72043, "ues": 21049, "ורים": 30721, "▁holdt": 63299, "adenn": 205899, "▁аспекти": 148802, "▁Oder": 63192, "▁المحل": 179894, "ಿಯ": 39918, "▁portanto": 149513, "喱": 243929, "▁ბიჭი": 169616, "▁konser": 56821, "▁wadaag": 202953, "▁ხმის": 228951, "ತಃ": 222555, "▁узроўні": 223530, "▁얻을": 206167, "▁भाषे": 194218, "▁teren": 22927, "waga": 112918, "ovna": 55607, "ຊົ່ວໂມງ": 238514, "▁questione": 92546, "ზ": 19349, "▁ωραίο": 233498, "▁öreg": 141262, "රා": 16273, "นิ้ว": 95844, "▁पर्याय": 155223, "▁pohybu": 123010, "▁වාර": 188222, "▁logam": 187680, "▁Telenor": 205366, "chtung": 99513, "ชัน": 88785, "▁Jarrai": 177894, "▁შეუ": 43491, "▁kodin": 141984, "▁എങ്കില്": 228721, "▁Csak": 51810, "▁αυτούς": 78666, "▁secure": 111670, "集中在": 176806, "dzes": 116056, "පිය": 155644, "▁læring": 117460, "▁Watanzania": 105089, "薨": 248943, "짊": 246690, "▁многа": 188060, "річний": 120693, "sza": 12406, "▁என்றார்": 127248, "yandır": 181918, "▁vietējā": 226503, "▁ಕೊಪ್ಪಳ": 160165, "▁measure": 72350, "悪い": 92811, "▁Suatu": 164464, "▁អស់": 102801, "▁cred": 10291, "▁vācu": 215907, "zaam": 91963, "даль": 107972, "憚": 246341, "▁Erd": 76210, "▁költöz": 214383, "▁உத்தர": 234781, "▁ಅಮ್ಮ": 194981, "▁височина": 149150, "晰": 245030, "стрий": 195003, "▁Dodaj": 133583, "▁parking": 43328, "▁cărţi": 168288, "▁ไม่ต้อง": 90092, "氫": 243618, "▁сэтгэгдэл": 67908, "▁ప్రెగ్నెన్సీ": 229962, "▁ინფორმაციის": 114916, "▁pridobljen": 228014, "heel": 144009, "ແຫ່ງຊາດ": 125306, "▁відбувся": 149458, "עסק": 89112, "jpg": 25687, "▁creativitat": 217270, "QUI": 68019, "▁Валентин": 97007, "ቪ": 48237, "▁ក្នុង": 5580, "▁دو": 2254, "إلقاء": 236304, "ീകരിച്ച": 89965, "▁hinaus": 49198, "מחלקה": 166484, "dict": 61669, "▁MAN": 26289, "▁домакин": 116931, "YP": 94588, "▁Pendidikan": 39684, "ičan": 110570, "▁personliga": 112815, "▁жетки": 142179, "▁içerisinde": 28365, "ဒုကၡ": 163289, "່ອນ": 154727, "কারী": 53207, "⛄": 247186, "▁высокий": 192689, "堵": 111894, "▁ಕಾನೂನು": 166785, "▁visoko": 51182, "▁aprendizaje": 123165, "▁názov": 157463, "гір": 85942, "坐在": 48533, "▁okruh": 193020, "▁uamuzi": 161555, "▁idioma": 49666, "▁Mary": 23213, "ರಿ": 5075, "▁חינוך": 134120, "▁mendidih": 239025, "▁eesti": 47123, "my": 1176, "◦": 233380, "▁Fotoğraf": 152287, "▁έγιναν": 158755, "ēšanu": 75327, "ოდ": 26270, "▁చర్యలు": 164968, "വ്വ": 98884, "issement": 51539, "▁vilken": 41134, "πλ": 31928, "▁працаваць": 132681, "▁atbildību": 203147, "▁դառնա": 188716, "▁sistēmas": 77257, "▁invit": 44854, "▁Ludovic": 203997, "▁అందమైన": 204892, "▁బల": 100657, "▁دمای": 199263, "dyk": 128157, "ല്ലോ": 49559, "▁போட்டியில்": 212927, "▁verrà": 84675, "苦労": 185888, "▁نظير": 188014, "▁Baðherbergi": 237463, "quvvat": 164817, "▁گزشتہ": 56548, "▁virkelig": 15842, "▁დევნილ": 242863, "▁दिनुभयो": 128817, "ares": 68291, "ေဒၚလာ": 226278, "▁məhsullarının": 211486, "▁предоставлении": 210513, "ท่อ": 113956, "ėmis": 74611, "▁մուտք": 124344, "▁экспорт": 64456, "ві": 4335, "订单": 152846, "▁فيصل": 147532, "▁возникнуть": 222788, "▁författare": 142708, "ευτική": 155702, "▁передбачає": 116042, "▁Gipuzkoako": 99677, "▁grub": 54127, "ረጋ": 90850, "▁antik": 67947, "任意門": 201828, "יעילות": 222955, "▁izvir": 137955, "循環": 121541, "▁загальної": 170491, "▁sayang": 38908, "控え": 210852, "▁хийх": 25411, "eign": 38529, "depressiv": 226953, "▁(41)": 130936, "रिटी": 214794, "▁ଯାଏଁ": 237538, "▁دغه": 9760, "▁tra": 1152, "γ": 4802, "stelle": 46266, "▁sharoit": 166218, "▁Militar": 67485, "▁sco": 14753, "▁maka": 2666, "ในอดีต": 218245, "▁pekerja": 97421, "▁muhiim": 71378, "▁வே": 24631, "▁skam": 76258, "09)": 88604, "▁بمحافظة": 217938, "nite": 17094, "▁ادرار": 221616, "となって": 83149, "บทความ": 126311, "നല്": 188499, "▁ktorého": 71488, "▁суспільно": 181852, "▁dîrokî": 200806, "▁absolutt": 140812, "▁удзел": 85901, "▁కె": 64296, "▁קומט": 107776, "▁Dahil": 80976, "▁preskaŭ": 118266, "▁представитель": 128379, "▁Ангел": 68792, "▁visitas": 96573, "▁జరిగే": 169680, "花蓮": 102249, "▁shoqërisë": 209696, "▁sjúkra": 237435, "嘛": 61721, "▁паз": 50265, "▁мір": 53353, "▁сүт": 110700, "▁дистанционно": 242443, "овина": 126079, "▁싫어": 233604, "▁ಮಂಡಳಿ": 178921, "▁bostäder": 206129, "▁суверенитет": 207893, "▁သြား": 96782, "ерите": 103930, "▁некоја": 116573, "żona": 109794, "დაც": 87479, "▁nuotraukos": 210033, "▁მაქსიმ": 190131, "હેર": 139582, "▁Сыр": 161098, "▁participação": 86354, "มันเป็น": 122455, "わかる": 111132, "కోవ": 93921, "▁натпреварот": 203639, "NBA": 112394, "▁실내": 211166, "▁میوه": 107740, "▁Талас": 117312, "১০": 108490, "ుకున్నాడు": 153815, "▁επιχείρηση": 129554, "▁پھینک": 221441, "▁Doc": 29048, "▁сок": 79906, "▁нерв": 45652, "▁قيادت": 230845, "روح": 74602, "ພິ": 68141, "岖": 249615, "▁kulevya": 216263, "▁Einzel": 60062, "▁տար": 34453, "गढ़": 146685, "ပြင့္": 230902, "▁ಮುನ್ನ": 104448, "ทําได้": 93784, "▁okupa": 106218, "▁Vivo": 115442, "演奏": 84117, "材": 33950, "新作": 182840, "१०": 65745, "▁דיגיטלי": 166776, "bung": 21463, "▁Svi": 31515, "learning": 152538, "▁eivät": 19401, "▁avadanlıq": 182557, "▁क्वा": 161464, "ించు": 90990, "▁لکڻ": 141030, "▁niedzielę": 178148, "树立": 133423, "felvétel": 202862, "κετ": 187789, "tuki": 110568, "вековн": 214783, "▁მოითხოვ": 179741, "▁되어": 55486, "▁Захар": 112804, "으로부터": 146314, "▁ล้าน": 103933, "inä": 39032, "材料": 14077, "तुं": 172843, "▁τραγουδ": 125519, "▁երեւույթ": 206101, "▁непознат": 114114, "روى": 195177, "▁ఎందుకు": 69929, "新たに": 199202, "▁zahlreichen": 152746, "찡": 246772, "▁соглашение": 187969, "▁зиян": 181820, "▁তা": 17830, "▁förstör": 218262, "▁uzman": 51520, "ვია": 77599, "▁Pont": 43601, "▁fetiš": 180221, "рған": 85725, "▁ನಿರ್ಮಾಣ": 94024, "▁mistrzostw": 240735, "▁lebo": 29705, "വി": 7327, "▁Euskararen": 188520, "▁стручњаци": 238275, "ages": 52467, "經理": 159638, "真實": 63170, "tätig": 200500, "▁سامسونج": 240319, "▁مزاح": 208164, "▁المعلم": 150547, "проб": 60958, "▁jongste": 209415, "▁Helaas": 169068, "桃園市": 167039, "मंद": 141090, "ั่ง": 87906, "研究人员": 195966, "wari": 49737, "зве": 96275, "依舊": 203125, "▁cadou": 166676, "দ্র": 87863, "▁वाहतूक": 209160, "舘": 246962, "▁போது": 44221, "nost": 3110, "ohvri": 228192, "▁gyakori": 159473, "▁fece": 87901, "zami": 73121, "回去": 80003, "▁Muito": 51591, "▁essendo": 151499, "▁módosít": 145789, "▁ମ୍ୟାଚ୍": 204364, "▁bağlıdır": 144193, "▁başvur": 149281, "▁tatuaje": 235107, "▁препо": 74581, "EHU": 172471, "▁Көз": 220735, "▁الطويل": 191902, "ógép": 209360, "▁consist": 58055, "▁chết": 22081, "▁ਜਨਤਕ": 241014, "▁كيفية": 100713, "벌": 98382, "▁καλό": 59958, "▁prijava": 154580, "▁Reason": 236267, "▁ruas": 144742, "▁ottaa": 42556, "vermögen": 217589, "震撼": 158065, "taa": 6803, "Gu": 22769, "▁thagann": 228391, "▁accommodation": 216417, "▁الحساب": 183466, "▁store": 4343, "气候": 123460, "▁úspor": 160806, "▁İzle": 162499, "fér": 32395, "▁spes": 113237, "▁щодо": 12621, "▁Şü": 149420, "▁uživatel": 79781, "▁କରନ୍ତି": 143509, "▁istorijos": 126760, "剖": 180472, "▁रुपन्देही": 237526, "正式": 12622, "▁κινήσεις": 204861, "▁იცის": 132446, "だけでも": 169903, "▁ಜೋಡಿ": 189594, "големите": 137092, "ນາມ": 87017, "▁Κόμμα": 238028, "▁కథా": 198445, ")،": 23198, "▁ಸಹಾಯ": 123244, "噂": 226611, "▁ເທດ": 37813, "の一部": 152226, "▁assistência": 193199, "▁عبداللہ": 191473, "콘서트": 173791, "▁barátnő": 221051, "▁собрания": 206318, "▁고려": 103522, "庭": 37767, "▁Alfred": 74733, "▁perlu": 5459, "▁пів": 49546, "▁комисија": 107214, "cã": 131246, "▁шести": 115783, "oja": 8508, "isaa": 115662, "▁configuration": 180346, "▁لج": 121076, "▁આં": 128751, "▁ගැනීමේ": 141334, "تحقيق": 138825, "ください": 10712, "▁blot": 45299, "▁ورزش": 36343, "▁skje": 73263, "▁વિસ્તારમાં": 191232, "▁Договорот": 202338, "।”": 40192, "▁Также": 52175, "▁unieke": 93451, "ciclo": 165897, "▁නොමැති": 89251, "▁delovnega": 215891, "▁Challenge": 73630, "▁ВМРО": 55368, "▁sanoi": 74062, "▁colleagues": 230331, "▁kıs": 130669, "妞": 226161, "▁jawab": 30564, "▁подоцна": 154870, "▁eus": 41934, "▁udeležil": 194466, "▁شڪ": 117248, "▁contratar": 152687, "スの": 93454, "▁Тоді": 153079, "▁tingkat": 28277, "▁रुपया": 218275, "▁Guardia": 170322, "▁ट्रेलर": 162552, "▁leksaker": 228457, "بيض": 110989, "永續": 192195, "グループ": 86202, "ឥណ្ឌា": 206927, "ถ้าหาก": 208822, "llisyys": 181942, "▁Ruf": 71970, "쿠": 43023, "▁tutan": 86372, "iči": 51828, "▁راتلونکو": 224399, "▁भ्रमणमा": 204536, "というのが": 107550, "▁المحدد": 216838, "28)": 77671, "プロセス": 228631, "ŭ": 25221, "挽": 208651, "छ": 7957, "דיא": 148222, "zeichnung": 106566, "▁busnes": 128483, "绣": 243809, "▁היטב": 137492, "одо": 59389, "edit": 45082, "▁රතිපත්ති": 208166, "▁Kengät": 240252, "▁pimp": 165185, "▁učinkovito": 152398, "莞": 243534, "▁سیکورٹی": 211318, "▁начинать": 210347, "▁Somalia": 66418, "ການເມືອງ": 170359, "▁რას": 44801, "▁ontmoet": 68205, "▁рабочий": 223106, "▁ofte": 12634, "סיכום": 186708, "▁مواد": 9499, "իք": 43634, "▁Câmara": 78757, "▁perhatikan": 172298, "toihin": 132276, "സമ്മ": 82904, "▁Такой": 170318, "ุด": 67261, "▁Реч": 102701, "સાર": 142791, "kilo": 120190, "dut": 46993, "міністра": 61037, "ತೋ": 155739, "触": 46696, "▁ચાહ": 234824, "▁ባለፈው": 137791, "▁mengesahkan": 173018, "arkisto": 209481, "誘": 60035, "▁коммерциялық": 230360, "▁या": 1591, "▁ਮੁਲਾਕਾਤ": 220089, "▁kross": 198422, "▁dyshim": 147396, "▁знаходяться": 178908, "⇆": 247802, "▁üzerinde": 26047, "分别为": 208887, "niejszych": 93893, "▁വാക്കുകള": 228989, "िलो": 129514, "▁vlerësuar": 222354, "▁உடை": 133304, "滟": 248425, "ובה": 54705, "▁одбране": 110874, "▁scheda": 194602, "▁រូប": 60116, "▁የሚያ": 13262, "Atenció": 187668, "жда": 22337, "ປະເທດ": 39296, "Qual": 178476, "ЋЕ": 181071, "▁해석": 185513, "Ji": 78595, "▁insanı": 125425, "▁2009)": 118901, "מא": 28714, "▁മലയാള": 53884, "▁efectos": 59574, "▁కల్యాణ్": 198237, "sindi": 128356, "▁hav": 31206, "လှုပ်ရှား": 229865, "▁Magyarország": 37181, "一家": 18994, "▁රවෘත්ති": 182201, "▁تلقي": 211168, "בי": 12890, "▁ሚሊዮን": 90311, "▁Παν": 70382, "▁poduzetnik": 235085, "▁വായിച്ച": 97366, "▁całym": 100416, "▁סקס": 92376, "stævne": 233168, "▁piedra": 154179, "▁thuận": 43168, "бран": 53287, "▁2,6": 115261, "シンプル": 161867, "afdelingen": 185954, "tkazish": 82442, "▁يحب": 152884, "▁vyrų": 203218, "▁pill": 34777, "ቀጠል": 162848, "▁zemřel": 209219, "▁வன்முறை": 229167, "▁assunto": 50056, "告诉我": 151469, "иці": 111459, "▁Conheça": 185388, "▁אלה": 40066, "▁гроб": 60828, "▁TAMIL": 232466, "▁ئۆزگەرت": 219261, "▁הצ": 31283, "▁Restauranger": 233563, "▁adapter": 123666, "▁weer": 4190, "૧૪": 164866, "▁Während": 101530, "让她": 125731, "▁délután": 134788, "ौर": 147433, "၁၆": 113453, "су": 2871, "oplevelse": 166313, "ór": 6997, "▁выклад": 196760, "wu": 16612, "ກໍ": 65258, "宣佈": 217444, "▁aspek": 73664, "▁Технически": 237285, "شجع": 177936, "▁тауар": 142811, "▁definitivt": 138807, "▁rādīt": 143151, "ώνυμο": 199438, "▁ხელში": 186474, "លំបាក": 241865, "▁тұрғындар": 213860, "热门": 175863, "правил": 163677, "▁tempor": 15042, "▁adnoddau": 217050, "▁duyuyor": 239175, "▁върху": 15443, "ckou": 134740, "обр": 42437, "▁ਚਾਹੀਦੀ": 227111, "특": 66601, "նի": 21151, "▁sprzętu": 137220, "私達": 197914, "燃料": 141420, "▁මෙන්න": 46987, "▁szerinti": 124655, "▁شؤون": 221873, "ก็คือ": 70489, "▁මාර්ග": 104773, "க்காக": 81875, "▁tunjuk": 154033, "спри": 78474, "▁õhtul": 162014, "zindua": 165825, "본": 25912, "گې": 160776, "ırım": 107378, "ㄙ": 248429, "▁мис": 68599, "▁එපා": 42374, "▁contatto": 85103, "▁défi": 100896, "▁આપવા": 83739, "▁Vorlage": 223004, "▁oftast": 102877, "▁gegaan": 102573, "▁நல்லா": 164103, "▁маж": 79964, "▁stundas": 153684, "▁Selepas": 71967, "▁Diş": 179161, "▁Glöm": 215024, "▁වේවා": 130123, "ဘာသာစကား": 238048, "მა": 1899, "▁OPERA": 205574, "ىلى": 108252, "口コミ": 125762, "▁დაიწყო": 60858, "▁խախտ": 122212, "▁Православ": 57069, "▁төрт": 67212, "▁bald": 33984, "ग": 3241, "▁dočeka": 205953, "▁الآخر": 84858, "▁niitä": 23424, "ဆိုင္ရာ": 138071, "▁životinja": 167189, "საც": 29580, "▁چه": 6310, "▁dosya": 121983, "ənə": 36964, "맵": 209175, "▁sula": 72931, "▁sodat": 67934, "плате": 68628, "▁பூமி": 214166, "▁vár": 21137, "옹": 213071, "jevanja": 170663, "ерги": 106600, "возвращен": 192475, "сподарських": 214353, "▁sentenza": 142689, "▁ամբողջ": 66895, "روج": 137627, "▁ئىككىنچى": 236904, "估值": 181160, "▁посилання": 65977, "很方便": 191567, "ၤ": 112117, "▁certifikat": 155513, "ປາກ": 169995, "kran": 94932, "▁жүр": 22360, "▁износ": 84979, "▁encantado": 115879, "▁sm": 14050, "चक": 69503, "▁নির্দেশ": 127274, "▁meydan": 90397, "▁мене": 15558, "▁κό": 85123, "▁gadget": 88100, "ե՞լ": 208342, "ସ୍ତ": 34634, "▁основе": 42803, "▁ਨੁਕਸਾਨ": 234601, "▁каго": 156699, "تحم": 201063, "ολόγιο": 137929, "▁kras": 54812, "▁normaal": 78539, "મૂ": 117385, "▁manufacturing": 218343, "▁risultati": 54018, "ус": 11409, "▁काठमाडौ": 166387, "###": 187284, ":59": 26451, "▁საქართველო": 35321, "liti": 28887, "▁chirurgie": 198457, "▁valokuva": 140669, "িক": 9976, "▁uzima": 119128, "explica": 145782, "kṛt": 232967, "▁madaling": 181042, "bler": 42108, "▁କନକ": 77606, "▁vorbereitet": 205223, "▁efekty": 45736, "▁spennandi": 206085, "▁eg": 30046, "▁neděli": 181418, "▁féminin": 213676, "▁abbandona": 160200, "德里": 119879, "დელ": 75426, "▁ав": 18671, "▁ऑस्ट्रेलिया": 139763, "▁دعوت": 43081, "考古": 208850, "ινή": 49839, "▁значит": 33434, "▁počne": 170938, "▁отворен": 119663, "▁febrúar": 119182, "hti": 20566, "▁இருக்க": 36725, "чів": 103035, "🎩": 248342, "zielone": 161051, "മുദ്ര": 205673, "▁పెంచ": 85409, "yasının": 108950, "▁அறிந்த": 220353, "▁กรุณา": 105462, "▁ark": 83446, "↝": 247677, "ічним": 128587, "nt": 660, "ový": 5087, "фік": 31543, "িত": 12468, "▁ketgan": 157995, "广东省": 118016, "▁properly": 155965, ":47": 33573, "라고": 15613, "▁Wasiirka": 75416, "▁අයිතිය": 131804, "▁медицини": 206285, "▁הכבוד": 233195, "פייה": 141198, "▁מענטשן": 115374, "ਡੋ": 172058, "駕": 123423, "办公室": 47078, "▁klaus": 46160, "ಿಸುತ್ತಿದ್ದ": 199717, "▁етуге": 199273, "▁περί": 34149, "▁menyelesaikan": 92941, "▁calidad": 21783, "îr": 30157, "▁Fina": 108384, "▁NBC": 189227, "IGN": 151657, "▁diesem": 8186, "▁පරි": 44290, "▁ученици": 47340, "▁otišao": 227997, "▁visada": 74357, "અર": 162997, "സമിതി": 137431, "▁пенсійн": 176199, "▁Üçüncü": 224019, "▁Biasa": 181483, "▁শিক্ষা": 38558, "▁beatae": 157534, "▁औसत": 206997, "▁moontlik": 52861, "yhdistelmä": 188543, "▁endrika": 208896, "คนนี้": 176378, "▁හිට": 171110, "▁उनके": 24939, "▁Haa": 60485, "▁samych": 190862, "suom": 115281, "▁Nørre": 191943, "▁शिल्पा": 222727, "▁ଅଫ୍": 199195, "▁MALAYSIA": 99789, "zentrum": 101214, "Israel": 204161, "▁ઘટ": 107781, "▁Αλλά": 75926, "ᄋ": 187945, "ген": 6266, "▁Pode": 32614, "▁CLUB": 200653, "▁Zoltán": 117547, "949": 176857, "▁nuttig": 212147, "▁नरेन्द्र": 153922, "▁apartmán": 192987, "▁chocolate": 64507, "▁Arian": 120524, "ผ่าน": 13801, "▁Tennessee": 230328, "ातल्या": 179139, "▁ശ്രദ്ധിക്ക": 149573, "▁єдино": 220769, "ੋਰ": 57589, "▁ຕ້ອງ": 85748, "轩": 207797, "▁genannt": 110310, "▁apprezza": 124828, "ഗ്രന്ഥ": 191010, "▁ವಿಡಿಯೋ": 130849, "莊": 63226, "▁കൗണ്": 219764, "▁station": 29398, "▁acestea": 30685, "▁пренос": 92332, "▁പിന്തുണ": 105153, "▁oceni": 100731, "▁தமது": 232119, "वृत्ति": 138456, "▁смог": 115759, "▁প্রকল্প": 141450, "▁ତୁମେ": 228055, "▁атаандаш": 239010, "▁حسین": 20438, "သတ္မွတ္": 230486, "tamente": 29211, "ască": 49179, "无需": 211889, "효율": 138069, "nejša": 184962, "▁ვითარ": 161682, "NIH": 116807, "▁kilomètres": 222235, "▁другим": 24242, "多种": 75092, "ARU": 112692, "▁Valo": 101832, "ミニ": 205467, "▁roghnú": 185030, "Sam": 29494, "ಬೇಕಾಗಿದೆ": 228041, "▁porządku": 197801, "szedł": 76761, "岱": 244978, "▁fala": 22306, "▁Blues": 116611, "▁landsbygd": 232481, "▁ក្រោម": 98294, "ㄏ": 247387, "▁једино": 150630, "▁Lambert": 224672, "▁мектепке": 165787, "▁qendror": 226368, "лан": 5192, "▁domino": 96889, "▁szpital": 121572, "▁zahrad": 86826, "atan": 13233, "خري": 130789, "▁sākt": 171440, "▁ateityje": 201707, "▁සදහා": 70028, "1.00": 146533, "▁Mumbai": 129828, "гд": 32144, "▁pago": 35745, "▁स्टोरी": 208960, "なんとなく": 224808, "▁Iz": 3519, "▁аударма": 207317, "▁marido": 118427, "kohteet": 226933, "▁Según": 64933, "íky": 134311, "第一位": 198558, "ക്കാതെ": 149019, "▁ట్విట్టర్": 224421, "▁위": 15868, "̉": 20586, "▁itselleen": 192349, "almente": 22588, "吓": 99121, "sett": 24946, "先に": 100596, "▁acelera": 114692, "▁továbbra": 117696, "▁പരിഷ്": 230118, "▁ڪاليج": 184625, "▁termal": 169161, "▁ονομάζ": 194950, "▁память": 166527, "▁σφ": 88072, "▁company": 14380, "ପାରେ": 100755, "▁тапқан": 222391, "▁companiei": 145104, "wachsen": 65911, "▁բազմաթիվ": 113600, "▁hmm": 114407, "ਿਆਂ": 18175, "▁Texas": 31464, "▁прадпрыемства": 136677, "oppi": 79129, "คลิก": 137967, "▁toy": 72713, "何とか": 218667, "▁doloremque": 175862, "▁چىقىش": 159575, "▁ଆଦି": 130998, "ЖОЛДОШУМ": 241353, "▁발견시": 208634, "▁کتاب": 7128, "▁इथे": 92082, "▁fatores": 192024, "▁historier": 77262, "1,0": 206808, "▁Kościoła": 215315, "▁rytm": 105319, "▁мистер": 127755, "▁ehdot": 76942, "▁sommerhus": 190890, "թի": 37158, "唯有": 189873, "tâ": 66358, "泸": 245083, "▁pirsgirêk": 116216, "føl": 115472, "▁Filter": 128896, "르": 8495, "▁hoppe": 145877, "兴": 29738, "▁కార్యకర్తల": 225397, "175": 121670, "▁పట్ల": 174460, "RK": 31875, "▁சர்க்கரை": 239332, "бон": 145378, "吱": 243847, "▁അന്ത": 122315, "თბილის": 186071, "เหมือนเดิม": 224205, "▁dipercayai": 165281, "ရရွိ": 166271, "όμων": 226873, "郊": 135564, "▁Informati": 43681, "mode": 61170, "▁дәрі": 154555, "Stra": 97315, "▁luoghi": 93428, "qhubeka": 223596, "▁ପାଣ୍ଡିଆନ": 242739, "▁العسكرية": 104042, "▁پار": 29051, "▁አጣ": 197232, "▁καιρός": 189883, "มีลักษณะ": 212080, "ಿಗೂ": 79704, "▁ideální": 144277, "▁omakorda": 226763, "▁наставник": 187348, "▁Michal": 79623, "पार्ट": 119601, "▁აქტიურად": 224015, "▁ರೈತ": 176410, "▁ಆರೋಪ": 91628, "▁amper": 151095, "▁tradi": 12866, "▁samt": 4237, "אַפּ": 71577, "▁Meninggal": 237652, "▁nhóc": 218088, "▁age": 32070, "▁යාමට": 177562, "▁świadczy": 184825, "▁Εκεί": 123212, "青海": 168682, "▁რომელიც": 6961, "▁नाग": 102173, "၀ိုင္း": 201279, "▁секако": 183688, "▁кръст": 128104, "▁user": 38937, "▁شى": 35632, "▁Ina": 58306, "▁उत्सव": 157112, "▁чек": 38402, "ятати": 167380, "elokuva": 211586, "யு": 35846, "▁आकार": 91172, "▁unbedingt": 94650, "▁zoom": 111245, "▁ፖለቲካዊ": 204411, "owa": 4625, "▁हादसा": 230385, "▁өзгеріс": 237774, "ጪ": 96164, "▁Principi": 174107, "ტარებ": 72016, "ाउँछन्": 216908, "▁վատ": 133537, "謡": 246468, "▁аховы": 180999, "qaz": 99901, "▁તમારા": 34437, "▁вайсков": 213628, "▁Taller": 135974, "▁cammino": 223695, "უნი": 107188, "▁მცხოვრებ": 198245, "▁넘는": 205091, "▁пяць": 168645, "▁stranieri": 213819, "▁सलाम": 218524, "▁thiên": 39429, "▁administración": 59870, "▁டிவி": 202870, "▁آهستي": 227161, "aðila": 89429, "▁ലോകത്തിലെ": 222091, "▁کړکۍ": 112750, "밀리미터": 210091, "▁decorativ": 156347, "▁ewentualnie": 239264, "▁աջակց": 101751, "▁Mudah": 80873, "▁окружен": 218697, "ቑ": 246316, "▁gefeiert": 242479, "データを": 174153, "編號": 210639, "▁ਗਲਤ": 234049, "ágy": 74421, "교실": 218266, "▁passaggio": 142967, "▁ша": 21639, "▁অর্থনৈতিক": 239383, "አ": 6759, "rah": 3962, "▁dema": 78517, "▁rezistent": 146751, "▁evolución": 119031, "▁کرد": 2736, "▁PAN": 57846, "ჭერი": 211594, "▁желаете": 189881, "▁Fesztivál": 221783, "▁Paris": 7270, "തെന്": 184767, "альные": 54976, "▁tradisional": 92375, "▁встановили": 239065, "▁Kad": 14287, "▁қауіпсіздік": 159104, "▁называется": 162276, "Pir": 154063, "说是": 125756, "▁البالغ": 189835, "▁запит": 72477, "▁Psicologia": 210111, "долларын": 158998, "▁אַרויס": 221422, "ṅg": 203275, "теги": 76763, "▁Ce": 1845, "ników": 34544, "▁ራሱን": 183425, "▁записа": 103678, "▁سالہ": 93802, "▁manifestar": 150071, "▁Liikenne": 228451, "遅れ": 160984, "▁चट": 190290, "▁ہے": 639, "بلد": 201572, "వారు": 71950, "怪物": 198442, "▁shtr": 66712, "▁julegave": 190682, "▁៕": 114010, "▁കാര്യങ്ങള": 207676, "▁Maendeleo": 78878, "廚房": 102413, "▁индивидуальных": 216714, "▁Ελλάδος": 145237, "ถ้วย": 187492, "denken": 52864, "▁lông": 106296, "เผยแพร่": 136696, "": 245396, "▁eleva": 57849, "▁arredor": 141864, "mäßig": 86756, "▁dóm": 106481, "▁inicio": 42484, "▁ਕਿਸਾਨਾਂ": 153636, "矣": 244481, "▁klíč": 143095, "▁సులభ": 218226, "▁Poznaniu": 188046, "▁თვალები": 186896, "▁училиште": 141737, "▁positivo": 50165, "▁problémy": 54212, "▁ділянок": 222250, "▁کودک": 41432, "שא": 83957, "ované": 13095, "▁simples": 30362, "ერება": 186494, "▁estrany": 230287, "親": 11638, "prys": 165295, "▁নিয়ম": 170451, "▁wyobraźni": 220059, "Ų": 52309, "лигата": 178723, "入り": 84652, "▁მამა": 50887, "変わらない": 221407, "▁asseblief": 163230, "▁מסת": 114643, "▁ಅನು": 61425, "โพธิ์": 209114, "بها": 102527, "▁горада": 86034, "▁ocupa": 18327, "▁pred": 1653, "▁அனுமதி": 110459, "▁decreto": 56940, "▁vezetője": 170256, "▁aldaketa": 130451, "▁invalid": 56649, "orto": 93376, "▁дитина": 127804, "▁છેલ્લા": 138096, "уш": 28578, "▁смята": 54337, "ή": 1313, "▁Токм": 199737, "▁voll": 59848, "▁entregue": 188594, "▁njegovu": 157848, "irajte": 99917, "▁Existen": 122688, "帘": 243276, "▁преподобн": 225922, "дневн": 148434, "▁ඉන්නව": 195590, "yhdistyksen": 184672, "▁Âu": 80570, "▁dopravy": 139458, "▁ארכיון": 187974, "▁bokstav": 155591, "▁parámetros": 236407, "▁सक्रिय": 107635, "▁Դատ": 157494, "▁diesel": 65676, "▁excita": 164101, "▁eleito": 121424, "▁확실히": 230397, "▁pasal": 70736, "▁frykt": 151108, "▁αρχαίο": 223400, "記事": 49243, "▁answer": 35166, "▁зөрч": 158814, "▁Alytaus": 196470, "上映": 117509, "▁plukke": 176904, "иращи": 187024, "ाचार्य": 157426, "worm": 142584, "枠": 187491, "មន": 170613, "希": 31894, "▁በተመሳሳይ": 216224, "▁marraskuu": 201234, "▁ສະ": 13735, "▁Zusammenhang": 105850, "▁Vald": 80834, "ثير": 61395, "▁reçu": 84882, "colare": 90637, "左右": 15369, "▁및": 3068, "▁având": 117980, "▁Button": 144037, "▁ju": 1129, "▁okružen": 191078, "▁begrep": 158691, "ದ್ದ": 20310, "ామని": 115429, "▁slike": 32970, "▁mësues": 182025, "▁derbarê": 87683, "▁Ей": 134385, "聽到": 101823, "▁memeriksa": 183737, "эка": 176013, "▁ድምጽ": 192311, "▁овог": 26476, "publish": 179193, "▁доц": 155025, "▁zatvoren": 146596, "▁ريت": 148430, "▁істот": 117628, "▁չէ": 18881, "秉": 243711, "szükséglet": 239883, "▁negle": 124789, "ယာဥ္": 127272, "▁matrícula": 168924, "▁إس": 126719, "▁gceann": 219882, "▁истражувач": 226571, "▁kesimpulan": 213113, "दी": 12686, "sura": 52546, "gging": 36659, "▁Hotellet": 122191, "ുമ്പോഴും": 202598, "맙": 244013, "лки": 35415, "▁Kaap": 115668, "لی": 8494, "▁звучи": 126631, "ARRA": 166007, "▁आश्वासन": 212255, "▁span": 27734, "ハイ": 107487, "▁Spolu": 144190, "лю": 5235, "▁იქნებოდა": 188907, "▁düzenli": 146219, "▁αναφορά": 157812, "깡": 244656, "ધામ": 221119, "▁Organis": 63917, "▁തമിഴ്": 109303, "കളുടെയും": 200290, "▁पहली": 47211, "ਦਿ": 143341, "ლობის": 75847, "νες": 20284, "▁מיד": 127461, "▁См": 80372, "▁അധ": 187452, "▁نهاية": 65631, "▁CỦA": 122941, ":21": 25619, "氲": 248701, "▁projektet": 68900, "siu": 56013, "▁spokojen": 115031, "eknek": 51900, "▁گیرد": 35564, "ვას": 35759, "▁থানার": 204915, "ົ": 57333, "▁official": 51521, "▁башында": 200727, "▁*": 661, "▁ڇ": 62950, "▁bibir": 107799, "vastus": 136813, "▁המשפחה": 121384, "▁قضا": 129431, "▁spręsti": 217475, "▁lên": 4494, "▁Football": 98809, "▁весело": 174438, "▁sempit": 169221, "▁obses": 107250, "▁recu": 43852, "ໂທດ": 161915, "▁டெல்லி": 230271, "遺憾": 223887, "旋律": 201352, "▁늘": 80859, "▁Gerät": 112971, "▁brunette": 154333, "▁mŕtv": 227073, "▁Vasar": 142654, "▁19.": 6529, "の話": 103171, "▁نبود": 45778, "ស្ស": 142357, "шер": 142241, "▁Douglas": 120469, "▁хоть": 55861, "▁teórica": 228478, "brille": 164548, "▁Guill": 143608, "▁denar": 96896, "▁bikarhêner": 242310, "kho": 13473, "▁වශයෙන්": 40248, "வாக": 51373, "tig": 9348, "hnúť": 155717, "▁Scu": 113793, "소리": 161761, "▁ઇન્ડિયા": 214970, "▁liña": 56627, "▁noves": 73437, "▁Марија": 158678, "ayeen": 71053, "ừ": 56906, "▁ಇಬ್ಬರು": 169731, "▁فردا": 93378, "掌控": 208661, "▁정부": 43968, "▁ਪੋਸਟ": 143779, "▁traktor": 73790, "aç": 51037, "Müəllim": 241035, "כט": 40920, "abhängig": 141344, "▁portavoz": 181451, "▁rejoindre": 192234, "▁Ucapan": 218003, "▁forbehold": 107723, "▁समारोह": 146587, "ificat": 65256, "As": 19659, "ukka": 30055, "效率": 28245, "▁Swe": 74412, "攒": 243935, "▁հեշտ": 172657, "▁গুরুত্বপূর্ণ": 188434, "อนุ": 121460, "▁zakup": 38956, "szen": 97194, "Yeni": 103912, "gitt": 84050, "▁Bratislav": 109748, "▁дитину": 184637, "▁gach": 18658, "▁marto": 135839, "teitä": 78372, "▁sözleşme": 129327, "▁manzil": 158726, "▁влегува": 206356, "▁선": 10486, "점": 11208, "▁мафи": 193712, "隨便": 214173, "rako": 13151, "▁ക്കു": 44863, "▁الإمام": 99147, "▁እንደሚያ": 100095, "שט": 29659, "▁മു": 15767, "▁ambasador": 90447, "个": 3294, "▁hãy": 24891, "лорун": 200347, "กระดาษ": 159772, "▁ئاتا": 113921, "▁adulti": 117732, "▁קאפ": 218606, "ေ၀း": 176252, "cco": 13400, "▁victor": 91375, "階段": 58192, "▁հանդիս": 123440, "▁אמריקה": 222808, "яването": 74865, "▁ideia": 45691, "▁bigger": 167785, "▁asiaa": 104174, "TRA": 37082, "▁Küche": 65679, "эргээ": 198450, "cessit": 109737, "▁унутар": 209268, "געלייגט": 242414, "▁mendedahkan": 198203, "ισμένοι": 174021, "▁பெண்ண": 136297, "▁شوې": 22343, "秩": 245931, "คุณสมบัติ": 107153, "▁wrâld": 222743, "▁khám": 40532, "▁चोपड़ा": 235738, "▁dëshirë": 191818, "▁صحبت": 56866, "▁φ": 10555, "滦": 247608, "ilis": 47090, "▁લાંબા": 212645, "▁Varga": 144275, "recept": 153524, "▁corporation": 216487, "▁verkko": 54066, "▁ramp": 76512, "▁Ши": 39663, "▁दृढ": 218295, "▁Голем": 154840, "kol": 6931, "▁todellinen": 239439, "▁professionel": 168758, "▁느": 78717, "▁scrittura": 218814, "▁elegante": 51849, "▁szállítás": 135449, "▁دہلی": 112759, "חה": 32184, "▁tund": 32660, "▁علينا": 101451, "▁whatever": 89778, "▁încerca": 163119, "лл": 50174, "▁Share": 29790, "μπα": 102886, "άμα": 125742, "pré": 92899, "▁põhi": 37246, "เป็นอย่างมาก": 227825, "▁ବ୍ଲ": 242915, "▁plantas": 72729, "mesema": 87035, "ា": 12115, "hópur": 209751, "İŞİ": 209477, "▁Drink": 167905, "condi": 70967, "▁גע": 6235, "рес": 23581, "ಂಡು": 188807, "▁цільов": 231732, "▁skriver": 14742, "▁hjärta": 104576, "▁λεπτ": 236676, "▁انتخاب": 12268, "बू": 35149, "▁कार्यकाल": 197009, "蒐集": 217026, "analyse": 58345, "រូប": 63194, "▁Verhandlung": 210485, "..!": 7999, "ЭХ": 97027, "スーパー": 140318, "▁suprafata": 151395, "▁Hopefully": 240095, "ړن": 149538, "▁Så": 3810, "rakennus": 184462, "▁половин": 36329, "▁rematar": 136088, "▁მყოფ": 162612, "▁କମି": 174867, "▁କୋର୍ଟ": 158453, "▁geplaatst": 123918, "▁kulmin": 197074, "HC": 73265, "DIK": 188080, "▁भिड": 182398, "ющий": 31877, "mese": 96163, "owanej": 87982, "▁ostrov": 99834, "ဂျာ": 203254, "多く": 85000, "τούμε": 167740, "▁õppimis": 237317, "lyn": 12536, "▁gaan": 2814, "▁Bár": 46745, "▁한경닷컴": 241350, "سعة": 164003, "vienība": 113851, "▁əlaqələrin": 139399, "▁martw": 203648, "勇敢": 149431, "▁Szolgáltató": 168542, "▁eiddo": 222044, "▁zrobił": 107814, "▁Liebe": 34118, "▁Usono": 102147, "സ്റ്റാ": 132584, "▁sztuk": 119526, "▁sommeren": 91613, "▁دروازے": 214906, "sano": 70699, "个多月": 225616, "▁envelop": 197118, "▁distribució": 208156, "▁покупать": 209928, "▁یادآور": 158797, "geno": 61065, "كتور": 82160, "▁νίκη": 102941, "▁conjuga": 228186, "⇉": 247916, "▁ביצוע": 141772, "▁talepleri": 221728, "▁prvý": 47971, "▁Mednarodn": 204420, "σκι": 185112, "▁comentó": 225915, "▁professioneel": 231729, "ဆုံး": 27121, "▁lähettäminen": 192302, "管道": 91295, "▁никакого": 122086, "▁Sole": 101453, "▁تحولات": 205132, "▁przyszły": 175783, "etet": 77642, "▁ਪਿੰਡ": 49799, "▁kerékpár": 142615, "開展": 125514, "▁Сұлтан": 239995, "▁Централн": 179529, "▁приходит": 124486, "ỗi": 106847, "▁groupsex": 160902, "▁расстоянии": 236078, "ण्यास": 116194, "Ƹ": 247602, "▁قلب": 33845, "▁sklop": 154369, "▁pazar": 53309, "71": 15770, "nskog": 82347, "▁Қол": 174827, "سىڭىز": 167018, "▁rodiče": 160329, "นัก": 17448, "▁pagmamahal": 226726, "▁تۈرلۈك": 198224, "▁auka": 92727, "▁nikada": 81588, "鵡": 249729, "▁შპს": 165690, "▁सकाळी": 121679, "찻": 246448, "▁komplex": 44234, "テスト": 120256, "▁orientar": 193008, "റേ": 69335, "yol": 54554, "fish": 84433, "▁lẽ": 34425, "üh": 24912, "▁nadmorsk": 234000, "▁ymmärtää": 163652, "れます": 170654, "▁pikku": 50533, "▁2012-2013": 208038, "أفضل": 182283, "▁Şube": 138515, "▁დავა": 67880, "▁hanyalah": 107631, "னே": 51161, "▁ਕੁਰ": 219114, "▁kesî": 192153, "▁Sản": 57061, "mouth": 111443, "শা": 37982, "न्ते": 143105, "ELLA": 125816, "ével": 15337, "γύρ": 209497, "▁העונה": 200083, "យុវជន": 118039, "完了": 63965, "▁сістэму": 234911, "▁நின்ற": 213031, "▁לאכול": 173897, "▁markant": 175530, "▁organizaĵo": 230248, "▁PlayStation": 75041, "mobil": 31721, "▁piz": 78928, "桎": 246722, "ttavat": 46849, "ליש": 128117, "▁સુ": 22353, "ಪಾಲ": 94470, "▁wadau": 123269, "▁продюсер": 219192, "تىك": 128933, "▁Bangor": 162417, "▁gambling": 208782, "ಪಟ್ಟ": 67654, "▁līdzekļi": 116455, "▁cutie": 158001, "▁Dəyişdi": 238529, "웠다": 198799, "▁моз": 72036, "弯": 147311, "▁dhawaaqay": 224044, "▁постепено": 236208, "బోతున్న": 121352, "betegnelse": 231777, "▁முக்கியமான": 205124, "▁rapat": 113917, "▁впрочем": 203040, "▁transferencia": 194559, "▁দাম": 177775, "▁congratula": 242799, "▁مجوز": 104249, "闷": 151964, "▁elég": 34063, "▁भने": 4507, "vole": 68383, "▁వివాహ": 146754, "▁alegeri": 156264, "▁వైరల్": 154219, "▁ਊਰਜਾ": 242019, "ಚ": 27412, "टल": 94785, "▁tố": 25146, "ാകുന്ന": 166731, "ávadný": 234794, "▁Phillip": 165458, "▁deci": 32380, "▁Търново": 147357, "▁քննարկ": 144177, "▁каментар": 142868, "书籍": 209829, "transfer": 141325, "▁przypadku": 20993, "ætt": 66098, "лля": 159046, "▁sfeer": 94668, "▁чудно": 225989, "ehrt": 143668, "▁korzystając": 230214, "▁پيغمبر": 207409, "▁quattro": 58267, "▁Fisch": 163721, "▁جڏھن": 215353, "▁начальнік": 179051, "▁liberi": 112361, "多少钱": 191662, "▁oggi": 16281, "▁gânduri": 199037, "▁директив": 235133, "▁sexy": 17473, "▁взял": 87830, "อักษร": 156745, "▁دارال": 210666, "อ้างอิง": 232284, "lender": 163089, "▁홈": 62009, "▁приложения": 100091, "gradnja": 137185, "▁хол": 45262, "جلة": 131960, "National": 137458, "täjä": 41464, "skimi": 101795, "ಂತೆ": 19228, "▁офіційно": 179188, "▁оюутан": 189289, "▁Радио": 59896, "isc": 60263, "▁partida": 34449, "hash": 126234, "▁ธันวาคม": 109479, "▁луд": 149641, "▁ደግሞ": 14356, "▁svá": 104314, "yyteen": 190293, "子宮": 207058, "▁vücut": 154866, "▁võta": 113424, "纠纷": 158729, "▁ديسمبر": 48102, "▁мозок": 194919, "ជាអ្នក": 202741, "▁Llan": 51905, "▁погоди": 106968, "▁קפ": 173583, "▁અનુભવ": 99469, "▁ಸಹ": 29193, "▁снизить": 237303, "▁κατάστημα": 228679, "项目": 6806, "ുകളുടെ": 87449, "▁մեկն": 119368, "▁әрбір": 118749, "খ": 15314, "▁Xaaji": 202790, "▁master": 31347, "▁α": 5961, "▁столице": 211629, "täisi": 125621, "ጉት": 195188, "▁گشت": 111124, "▁innebærer": 193980, "▁Taj": 44061, "ገነባ": 168470, "什": 87243, "▁field": 44457, "鼓": 62670, "▁Košice": 156181, "▁latina": 81986, "▁лікаря": 139247, "▁talar": 127229, "ላይ": 68249, "人大代表": 214508, "关键词": 198461, "حية": 129928, "▁faa": 78471, "▁состоянии": 68849, "eaza": 7757, "▁slovenski": 89046, "▁سیر": 81155, "▁възстановяване": 201511, "▁ਅਨੁਸਾਰ": 126488, "▁munkáltató": 241610, "▁vermeiden": 178232, "ex": 3355, "▁айтқан": 161053, "▁fortuna": 50612, "▁țara": 214600, "▁görüntü": 54977, "▁म": 3396, "▁vergeten": 169413, "": 245356, "▁öncü": 181906, "▁لوري": 121735, "▁పోరాటం": 226527, "meld": 28295, "▁slimību": 219797, "▁putut": 79753, "▁Computer": 40139, "▁najlepšie": 74434, "▁प्रदेशसभा": 127293, "氓": 244102, "▁terrestre": 150233, "pakken": 160045, "↾": 246693, "▁пътуване": 126775, "▁Максим": 49394, "332": 123128, "vraag": 115414, "▁مہین": 124774, "lari": 1703, "▁Webdunia": 201835, "▁Company": 33734, "▁तर": 2956, "▁տուր": 119067, "หัด": 222646, "eiro": 11126, "▁மனதில்": 223201, "▁Geen": 64079, "▁υπό": 32659, "▁በቀላሉ": 196935, "▁findet": 26645, "▁peace": 88669, "从未": 152391, "▁տեղեկ": 157227, "folyam": 131668, "▁ling": 38786, "▁stroškov": 171157, "ुन": 18662, "▁avanço": 194956, "▁мәдениет": 65038, "▁sufiĉe": 170765, "▁здрави": 131494, "▁కష్ట": 70494, "tren": 54509, "▁uruchomi": 170787, "▁मिस": 66755, "▁Spot": 82025, "▁ერთადერთი": 166477, "▁Vô": 148013, "▁yetiştir": 130361, "왠": 243608, "▁పోర్న్": 202219, "▁عادل": 106257, "▁Pai": 37897, "▁osvet": 107939, "蒿": 246363, "▁հնարավորություն": 53725, "▁ČTK": 190217, "loon": 100702, "យោធា": 210539, "▁грошай": 226229, "benduaren": 146796, "▁esimene": 89500, "▁Indhold": 156523, "罕": 135023, "▁اینستاگرام": 150429, "▁Unter": 21912, "▁sexleksaker": 239624, "▁وٽ": 34964, "ակա": 82311, "پنهنجن": 154853, "▁компаній": 157776, "╁": 248029, "评价": 51184, "▁Kdo": 78657, "▁квартири": 192473, "דה": 13720, "ዩ": 17062, "پس": 95716, "▁یہاں": 26239, "▁wzrost": 82539, "სწრაფ": 149765, "▁აბ": 115328, "▁туризм": 74167, "ไหม": 34624, "▁daarop": 101439, "पीडित": 233706, "내": 10459, "▁maahan": 106077, "꺼": 112955, "▁Registracija": 204906, "▁μοντέλο": 189321, "догон": 178016, "▁Нарын": 93793, "▁usporiada": 234972, "▁Melaka": 77735, "pell": 117515, "▁құрамына": 202328, "▁передбача": 233137, "▁ата": 9704, "樂": 10120, "dati": 83074, "▁aportar": 123779, "▁etorri": 86303, "▁עיריית": 207030, "яднання": 209870, "▁ಹೊಂದ": 81517, "▁Hưng": 129801, "▁жақ": 108657, "ខ្មែរ": 31321, "▁आशंका": 182195, "▁reproduk": 93051, "ssica": 161657, "대한": 98714, "▁تجري": 196716, "▁билдир": 95918, "짭": 246771, "▁Pēdēj": 233347, "යෙන්ම": 128703, "妹": 39204, "ାଧିକ": 145695, "▁Ser": 5406, "aru": 72494, "尚": 34484, "▁concelleira": 237473, "▁Şirvan": 231292, "▁Lập": 189041, "▁୨୬": 200471, "▁ਘਟਨਾ": 212956, "▁darbi": 60216, "cev": 14199, "▁complexe": 99115, "▁classe": 23831, "興味": 73300, "သင္တန္း": 238767, "▁Kupası": 203757, "గారి": 186495, "iņā": 81441, "▁Wine": 120634, "▁ocijeni": 212847, "▁በትክክል": 241345, "▁divulga": 76664, "नका": 113229, "▁سلطان": 80797, "▁دويچه": 151977, "жили": 88164, "▁Bonn": 123268, "▁positiivise": 234654, "▁जन्मदिन": 164640, "▁мільярд": 166065, "▁အခြား": 176661, "▁biztonsági": 144027, "grond": 82787, "▁کارشناس": 167323, "ійський": 202798, "eirão": 202552, "▁থেকে": 6638, "럭": 136406, "南部": 98443, "▁edhe": 2608, "▁JA": 9846, "▁etapas": 115438, "삼": 53885, "ጲ": 244363, "sindavefur": 207945, "gueiro": 188720, "▁relations": 91582, "▁졸업": 142916, "▁nuova": 22264, "▁oprogramowania": 210034, "研究所": 58002, "▁diadakan": 55915, "หลอดเลือดดํา": 211828, "対象": 61720, "maat": 27697, "▁KOMMUN": 241851, "▁художн": 156023, "▁Bio": 10257, "obra": 19495, "▁දාල": 174971, "технічної": 193878, "sätze": 97623, "▁байланыштуу": 101029, "▁പെണ്ണ": 131761, "تدفق": 224692, "▁organism": 25150, "▁Rs": 115034, "▁Nguyên": 51358, "ච්චි": 109463, "一幅": 206839, "被": 1317, "▁باس": 94291, "імді": 68829, "▁εγκαταστάσεις": 213124, "ью": 18372, "▁בלויז": 169319, "▁അളവ": 208829, "▁ಪಾಠ": 223212, "చే": 26283, "パイ": 183605, "滥": 210429, "İYA": 153540, "充满了": 195175, "▁condamné": 238686, "ரோ": 28577, "lå": 83842, "▁ଶ": 28154, "▁кийинки": 135728, "IST": 35602, "tukseen": 68989, "▁Pří": 37883, "▁jāpie": 177436, "▁Книга": 136429, "的状态": 139597, "IŠ": 103337, "▁bouton": 157281, "▁ইতিহাস": 113821, "▁δυνάμεων": 223094, "▁म्हणाला": 196217, "▁dobrych": 198896, "▁poczucie": 185884, "▁регіон": 123742, "ตี": 43978, "vuotiai": 190765, "ப்பற்றி": 177530, "▁говори": 22397, "▁rahoitus": 99629, "▁oferind": 223304, "▁önceden": 174889, "▁പകര്": 190225, "▁Captain": 154564, "▁داوطلبان": 210735, "▁өвчний": 233561, "▁Conven": 65229, "▁Завтра": 241638, "ରଣ": 49798, "▁πήρα": 168605, "▁século": 29679, "▁deegaanka": 92119, "▁fuego": 130740, "ടക്ക": 84924, "▁energètic": 222902, "▁bà": 15409, "▁Williams": 40478, "▁கோப": 170659, "▁ક": 7174, "▁ధన్యవాదాలు": 201752, "▁sehen": 18191, "▁përfshirë": 91795, "▁توغرىسىدا": 163576, "▁esquece": 190359, "▁सैन्य": 165095, "τήριο": 51736, "▁cosúil": 137520, "▁αντίστοιχα": 224854, "▁ఏడాది": 112752, "▁exclu": 39041, "નારા": 139824, "▁տրամ": 200759, "▁milljarða": 207377, "ٰ": 5650, "▁виробництва": 65439, "▁स्वतंत्रता": 215494, "Dövlət": 234445, "▁gjak": 114555, "Азаттык": 141815, "ологічних": 200985, "ავა": 94720, "▁טעג": 193012, "▁cependant": 150416, "magn": 86049, "▁ପୁରସ୍କାର": 197358, "▁تجارب": 210233, "▁කියන්නෙ": 75286, "滤": 193956, "ሚከተለው": 210574, "▁oldalán": 138453, "jött": 122155, "▁όποια": 229911, "טראכט": 210674, "တော်": 20409, "▁appréci": 178805, "▁ښځو": 109284, "▁রি": 65778, "▁0.0": 89678, "▁تعبیر": 181406, "▁entgegen": 142593, "▁uudis": 50042, "▁механизъм": 235848, "リ": 5677, "のもの": 103240, "tischen": 97521, "โกรธ": 233753, "лич": 65181, "▁delako": 135761, "▁लिने": 117061, "▁objedná": 110140, "▁FEB": 171991, "▁համագործակց": 56865, "▁వర్మ": 169922, "▁blockchain": 127009, "街上": 168375, "mwambia": 228844, "НОМ": 114662, "療癒": 233737, "▁تروریست": 184095, "▁സുപ്രീംകോടതി": 225375, "住院": 179034, "▁käytetty": 135342, "▁täyden": 153016, "▁۱۹": 33477, "▁imens": 92613, "▁വന്നത്": 186402, "▁sinds": 90618, "▁Мэдээллийн": 198214, "▁hálózat": 87633, "▁სიხარული": 226708, "▁beeld": 51472, "തുടങ്ങ": 87803, "▁відповідни": 98162, "▁पढिएको": 191063, "▁სამწუხაროდ": 199560, "▁моменту": 144727, "се": 2687, "▁spl": 27095, "▁которым": 44119, "천안": 159235, "▁polja": 156038, "▁նվազ": 151351, "пыт": 30271, "▁Raza": 86889, "▁figyel": 49883, "▁djeluju": 240793, "▁उड़": 118891, "送": 4663, "벡": 243985, "ಅಂ": 95835, "▁istovremeno": 223927, "យ៍": 217579, "▁Detta": 22861, "▁العامة": 26517, "▁అల్ల": 163492, "▁Ideen": 76232, "▁begrepp": 203375, "▁beden": 86131, "▁Olyan": 139854, "▁sertifikat": 109060, "oilla": 62799, "ग्रहण": 174102, "mojo": 88227, "ಿಗಳು": 87829, "▁допълнителна": 226458, "▁schimba": 88178, "unter": 29321, "usap": 93654, "▁talde": 39328, "▁гар": 9752, "ី": 11641, "▁certain": 24233, "▁хураа": 152477, "ကဗ်ာ": 99603, "▁tikrai": 31340, "▁оствари": 74506, "ວີດີໂອ": 185823, "fek": 23712, "ட்": 5270, "▁liberdade": 75684, "▁aceptar": 167065, "終わって": 164670, "จราจร": 226277, "িন": 55820, "▁raccomanda": 170806, "▁დამცველ": 224500, "innovation": 192457, "യുന്ന": 142275, "▁mədəni": 155361, "lič": 20732, "によると": 140348, "▁gagner": 106667, "▁branż": 204147, "▁Tyto": 155674, "mælk": 182524, "llista": 27374, "▁rialta": 136860, "vir": 7203, "▁සත්": 55955, "環節": 215499, "កែ": 74765, "▁ස්ථාන": 112100, "▁Ён": 36432, "izante": 172589, "▁چھ": 24412, "▁Eure": 156327, "▁visuomenė": 197965, "▁líderes": 123621, "▁30%": 16279, "ësisht": 70122, "▁problem": 2967, "ฉุกเฉิน": 242616, "▁először": 80053, "ທໍາມະຊາດ": 173762, "build": 177149, "▁ევრო": 64425, "컵": 86159, "▁ủy": 112572, "administra": 103268, "είο": 35540, "–18": 132869, "▁Wszystko": 102931, "▁구름": 208400, "再": 2058, "残り": 164723, "▁Flüge": 205351, "人民法院": 106228, "▁utomhus": 177767, "媳": 243530, "▁بى": 42532, "▁ٹرین": 166393, "▁maar": 1476, "▁fito": 35804, "ਠ": 39146, "▁მოძრაობის": 158185, "▁субботу": 238581, "चन": 56631, "▁ئۈستىگە": 235313, "▁पेट्रोल": 94016, "▁السيد": 47229, "Ḥ": 246517, "▁nảy": 240736, "普通的": 157654, "▁inca": 18152, "▁میاد": 183620, "是不是": 29180, "▁általában": 100359, "▁ಜನರಿಗೆ": 170876, "lte": 27805, "▁რომელმაც": 84332, "▁студената": 172665, "▁Fiz": 94610, "▁моята": 149346, "וש": 29260, "ily": 20102, "哪怕": 139426, "▁хэлэлцээр": 224744, "▁dificuldade": 165274, "欠": 41030, "▁வேண்டிய": 61300, "ஹா": 73221, "▁Kaikki": 30376, "▁celkový": 200286, "▁jutro": 113493, "bideak": 130655, "▁רישום": 221038, "쌩": 246615, "▁Бог": 15980, "▁регистр": 63972, "侵犯": 136661, "ହେ": 65975, "টি": 4557, "▁കഷ്ട": 205152, "▁Vorschläge": 221500, "▁kaptam": 174135, "▁مؤتمر": 114036, "▁완벽한": 217624, "▁کالاهای": 202914, "▁Liệu": 206736, "▁istorija": 96059, "▁Osallistu": 203021, "部落": 108380, "▁dostupný": 170168, "ٖ": 244915, "inė": 7819, "စဥ္းစား": 210463, "▁vekst": 148519, "榜": 51286, "១៩": 120610, "在全球": 118540, "▁പരിശീലന": 212175, "စ္": 17225, "▁उम": 101820, "▁bakım": 90063, "▁زندگی": 7206, "▁ደሳለኝ": 190579, "9,6": 191534, "▁Mask": 19974, "▁närvarande": 216738, "▁popoldne": 241706, "▁роли": 95031, "▁vedea": 56080, "▁plača": 106209, "▁bekende": 88905, "▁Негови": 191548, "▁deberán": 97953, "τια": 83157, "▁pakket": 99394, "▁പ്രഖ്യാപിക്ക": 241692, "": 248970, "ស្ន": 179119, "2,00": 167816, "ન્ટ": 33631, "▁huone": 48513, "▁publicada": 67217, "العرب": 212548, "▁атрымалі": 197515, "лор": 44264, "▁funziona": 54624, "➤": 244198, "▁जिंदगी": 128533, "larni": 8199, "ரு": 8850, "▁gizarte": 64461, "▁န": 42589, "▁kollégá": 203496, "લું": 97077, "佯": 246414, "Chúng": 217015, "仕": 39201, "▁санал": 27395, "▁પર": 3462, "▁smerte": 77530, "▁conservador": 202944, "▁ဒီဇင်ဘာ": 242037, "▁ضرر": 141593, "▁промяна": 81743, "▁мужчын": 113042, "психолог": 212092, "糞": 243836, "▁πλειοψηφία": 182572, "往返": 220703, "▁hendi": 183521, "▁comportement": 147156, "▁សមាជិក": 137692, "▁piloto": 99320, "кога": 75497, "▁своє": 80956, "▁विल": 135441, "व्यवहार": 232583, "▁Newsletter": 55373, "उदा": 182481, "記": 16341, "▁feugiat": 34846, "▁ಆನ್": 159725, "ೊಂದಿಗೆ": 68421, "▁lưu": 22891, "▁Blir": 123554, "▁Kalb": 154672, "▁జరిప": 198051, "raithe": 117973, "▁personaje": 97433, "▁aplikácie": 190986, "▁गरिएका": 188924, "▁vykdy": 122157, "▁nomo": 60296, "▁содержит": 132428, "▁Svjetsko": 145627, "▁Follow": 77168, "▁dichiarato": 155944, "▁तर्फबाट": 162237, "進": 7468, "▁honra": 133596, "ต้นทุน": 231684, "▁stie": 41378, "▁Broker": 205164, "bajnokság": 130419, "ប្រាក់": 99389, "▁roja": 51885, "አቀ": 142497, "▁sociales": 29510, "锌": 244385, "▁bloed": 72860, "▁kampung": 43288, "▁shitje": 190941, "▁ddiddordeb": 229080, "▁بگذار": 135476, "▁lipo": 136327, "▁ол": 9676, "▁olacaq": 25323, "▁zvan": 106712, "▁ಶ್ರೀ": 28074, "tajia": 143658, "▁Ulf": 195901, "▁phục": 15195, "હિ": 48083, "▁Hoe": 15849, "▁Andrea": 48176, "▁질병": 206620, "तम": 58939, "▁позволит": 119638, "Arquitect": 240054, "ارب": 91170, "เทคโนโลยี": 52589, "▁īpašuma": 159317, "ราด": 199846, "턱": 227857, "ланд": 27663, "afrika": 54720, "रहे": 70831, "▁ঈদ": 107037, "▁állnak": 174364, "▁받는": 100330, "sakė": 124730, "▁окшойт": 224866, "±": 38405, "▁Чер": 72904, "▁Ресей": 74509, "▁Phân": 164712, "▁soddisfare": 178729, "▁реформи": 83388, "▁ihmis": 47747, "ສິນ": 116133, "ർന്ന": 113046, "גיא": 127710, "gacha": 43636, "60)": 88586, "▁робота": 60917, "agricoltura": 217735, "vą": 58590, "▁Барак": 173646, "▁داستان": 35501, "▁денежные": 231158, "007": 77110, "1961": 160733, "тк": 68689, "proq": 96316, "▁громадян": 23197, "▁Matukio": 86450, "▁organik": 122646, "mini": 9222, "ుతున్న": 45473, "▁prava": 15964, "会计": 85620, "▁Episcopo": 229876, "▁akka": 81866, "志工": 199021, "妣": 248920, "▁ugovor": 75540, "לאָג": 203749, "▁універсальн": 235724, "ලෝක": 170728, "▁உயிர்": 122740, "̑": 247913, "อิเล็กทรอนิกส์": 195681, "が生じ": 209953, "iarratas": 105860, "курс": 60147, "rechnung": 132947, "▁slijedi": 162941, "▁הקהל": 202695, "🍆": 248106, "▁aperto": 90632, "▁راځي": 220992, "hur": 10437, "▁rešitve": 166416, "ğini": 124316, "▁thao": 68631, "莹": 240550, "ത്യ": 44122, "的空間": 157415, "▁kualitas": 51244, "ЉЕ": 179097, "▁recuperación": 103497, "▁qapı": 143121, "ISS": 43351, "מייל": 62815, "▁Patriot": 182857, "▁bhfo": 106873, "▁iskustva": 120700, "▁предава": 48270, "hasa": 105978, "měsíční": 229225, "▁अस्पताल": 35227, "這位": 135150, "▁prezydent": 147950, "▁gwir": 163726, "▁зависеть": 240658, "ગો": 112498, "▁تقویت": 80086, "▁natura": 14354, "ネ": 23279, "kö": 6316, "▁কার্যালয়": 87251, "▁veux": 54226, "ອອນໄລນ໌": 142578, "пустила": 188179, "۸۰": 128113, "▁Ecuador": 167844, "▁Alban": 99041, "▁olunur": 25329, "▁тисячі": 160245, "toimetaja": 242575, "▁ОАО": 180202, "ALAM": 96058, "▁말고": 173990, "▁тэрээр": 219814, "▁прототип": 236076, "▁நகர": 99768, "▁verskeie": 142031, "▁jazdy": 85785, "▁nhằm": 51127, "▁vsakega": 172736, "▁parazit": 128980, "購物": 36191, "▁tratamiento": 45231, "撤": 66048, "▁geregistreerd": 238541, "▁Objav": 127078, "▁သံ": 90920, "▁آور": 82646, "▁укључује": 242781, "▁Xây": 112800, "ées": 8493, "▁ஆம்": 83505, "▁दुसर्": 220344, "▁adamları": 133079, "▁Джа": 93834, "▁dużym": 128442, "▁mwanafunzi": 227159, "▁որովհետեւ": 95590, "szent": 146988, "和": 264, "基金會": 111772, "▁miljoonaa": 133819, "▁mudanças": 119666, "ography": 87168, "⚪": 247285, "ainn": 53613, "▁تۈرى": 210855, "▁Λε": 63193, "断": 19563, "▁betydligt": 172615, "ించండి": 230609, "ufa": 89511, "▁Caesar": 64914, "▁olet": 36897, "▁indeed": 160463, "ptic": 112569, "▁Ρο": 155424, "▁Друж": 166552, "▁ايف": 153982, "▁вместе": 32529, "arne": 46204, "▁smör": 151798, "ንና": 42919, "▁spesies": 225557, "▁neįmanoma": 216173, "▁እውነተኛ": 183814, "▁کمیته": 114288, "▁кыргыздар": 143081, "▁англ": 123864, "986": 204225, "▁excelencia": 218076, "▁concert": 20428, "बीचको": 165860, "▁strani": 7697, "सक": 61572, "கிருஷ்ண": 190523, "▁wanaagsan": 93126, "▁bhu": 44010, "».": 1251, "▁Koha": 146083, "▁Naast": 102475, "ෆෝ": 204121, "▁був": 14571, "▁käyttäjä": 79888, "の違い": 163750, "gemaak": 191305, "▁06:00": 158520, "▁мыйзамдар": 189471, "્રી": 76515, "orra": 50248, "範圍": 68411, "פחד": 132015, "本地": 65992, "▁delega": 33743, "45)": 129507, "tena": 51219, "▁petani": 176337, "▁haqidagi": 148082, "▁medžiaga": 138878, "▁ødelægge": 237677, "▁стол": 17641, "▁Până": 183865, "卵": 92662, "▁киселина": 166773, "▁Gửi": 140342, "▁bêtir": 197556, "▁BD": 89254, "겼": 124537, "pija": 116282, "▁4.3": 80196, "▁atras": 87283, "▁themselves": 61261, "öp": 70740, ":11": 19993, "▁pažymėti": 243327, "▁خاشقجي": 218785, "janju": 118408, "▁dinding": 121574, "▁குடி": 92863, "▁пресуда": 228128, "▁použitie": 129634, "Kel": 182054, "▁Αυτός": 158623, "▁Kodi": 139222, "▁Ті": 126127, "及时": 32292, "ldið": 181526, "▁Оп": 39147, "▁הללו": 131880, "kirkja": 197975, "▁günah": 91818, "зв": 36421, "窮": 127240, "▁Mahendra": 161933, "猝": 244772, "霁": 247006, "▁Сіз": 99959, "▁नका": 118429, "▁służb": 118524, "▁críoch": 225621, "gatan": 56208, "علق": 183112, "biegł": 169862, "▁sina": 8223, "▁sok": 8200, "▁Vorteil": 135432, "▁ဆက်လက်": 227531, "漂亮": 80179, "▁вартості": 152950, "▁పట్ట": 60293, "次回": 149894, "▁بایگانی": 164282, "▁algoritm": 83898, "▁basada": 174147, "rlo": 14282, "ທັງ": 74982, "ՎԵԼ": 231477, "▁So": 1061, "婚姻": 47938, "▁نکنید": 142075, "▁izlet": 139504, "的内容": 69971, "أغلبية": 242459, "гийг": 34802, "▁otthon": 45984, "▁piedi": 77328, "▁naturel": 94684, "▁keindahan": 144103, "▁позицию": 203894, "적인": 6988, "kiwemo": 154952, "▁выгод": 79310, "▁सुंदर": 62519, "▁جيتوڻيڪ": 214467, "občutljiv": 216942, "▁plotësisht": 211865, "▁hľadá": 156914, "뜸": 245023, "▁น": 10383, "▁rutin": 33864, "スタジオ": 232632, "ório": 104159, "▁rasa": 7930, "▁арм": 51464, "▁skaber": 149727, "▁müayinə": 211350, "▁when": 3229, "▁Гу": 22146, "វីដេអូ": 165988, "▁alumni": 228140, "▁ਪੈ": 46875, "▁तस्बिर": 213985, "ॅप": 142876, "ților": 76011, "▁нашите": 24739, "ભાઈ": 44994, "▁Dhe": 23041, "▁Fitiavana": 236032, "▁Једно": 179008, "作業": 26183, "▁επαφή": 177809, "kes": 9248, "звыча": 172505, "▁перших": 164016, "▁erkennen": 88397, "砝": 246834, "▁зробити": 41957, "▁tiện": 30276, "▁କରୁ": 120591, "▁molt": 5339, "▁pesanan": 173232, "zhi": 47311, "▁mjeseci": 67297, "▁দা": 60910, "níkov": 88692, "椒": 236334, "只有": 7197, "▁అభిప్రాయ": 136815, "շրջ": 116913, "reftadaeth": 236492, "持有": 79206, "▁modern": 5744, "ುವುದೇ": 193407, "გრძნობ": 119041, "預告": 202266, "▁Lehr": 87748, "▁EÚ": 105122, "▁Nafarroa": 133928, "విష్ణు": 224331, "mees": 105044, "▁rezervuara": 102085, "▁proprietar": 180639, "ADU": 168846, "ούσαν": 62185, "เต้น": 177679, "oloģija": 183679, "▁выража": 152086, "▁икона": 195524, "匡": 244601, "▁budućnosti": 156239, "▁promote": 125568, "▁poursuit": 199739, "▁šalyje": 166830, "▁آلبوم": 138604, "恨": 71639, "▁айып": 91586, "▁רחב": 85718, "▁बजा": 141854, "▁ηλεκτρονικό": 236427, "▁пациенти": 114298, "▁त्यसलाई": 157542, "ανο": 137051, "▁განსაკუთრებით": 130062, "verta": 139508, "▁سینٹ": 192170, "AE": 34014, "组建": 178856, "▁erfüllt": 170805, "▁qonaq": 142090, "zainteresowanych": 237038, "▁сессия": 209670, "อินเตอร์": 218044, "▁Blu": 29252, "▁스": 10324, "焘": 248192, "▁dứt": 136961, "売買": 228176, "▁сна": 58536, "▁pradėjo": 102631, "ಲ": 4685, "rì": 126205, "▁mindegyik": 179073, "ルの": 128484, "▁Kelet": 186934, "▁chrétien": 224000, "▁Süper": 124594, "▁מתאר": 217794, "▁pergunta": 57797, "ବାସ": 105391, "▁зөвлөгөө": 125060, "ighed": 29590, "▁టీ": 40388, "▁fængsel": 242988, "nejších": 140426, "▁clasic": 127079, "▁tänkte": 116804, "▁بخاری": 163391, "一只": 79608, "▁berpegang": 242474, "ēm": 20766, "▁ಮಾತಾಡ": 213202, "▁ادارے": 61812, "▁Kate": 37958, "嬉しいです": 177499, "▁": 54926, "▁Разве": 193963, "▁eforturi": 197149, "▁Kantor": 131446, "▁تمرین": 92519, "▁saytına": 174016, "▁назву": 141168, "▁sallam": 154304, "▁матері": 152364, "▁લઈ": 99780, "▁Kil": 38827, "▁ose": 16421, "▁сериозно": 136401, "▁odwoła": 223249, "▁Алғашқы": 179297, "▁comezo": 150337, "▁Има": 14504, "▁مشترکہ": 171657, "yum": 26286, "▁port": 11469, "生气": 179810, "▁balík": 193803, "知识产权": 109271, "▁잘못된": 228858, "軌": 97159, "အမ်ိဳးသား": 176144, "ವಾಣಿ": 139498, "▁feira": 105733, "▁وصلت": 158384, "▁stuk": 36962, "▁그럼": 150490, "▁ኢሳያስ": 235767, "▁उद्या": 160242, "▁condition": 35431, "▁соц": 111572, "▁सकता": 17760, "▁provo": 53605, "郢": 248398, "טופ": 179857, "▁ihned": 145468, "▁өндүрүш": 230600, "▁باره": 105321, "ვარი": 51200, "taendelea": 180869, "▁Përveç": 220493, "▁кийин": 23686, "▁hoje": 17967, "▁برد": 39310, "▁çorba": 236511, "▁आजको": 67091, "เปิดตัว": 74967, "▁formularz": 146328, "▁социальные": 207964, "▁varietat": 138939, "▁оружје": 101540, "▁мол": 20449, "▁درخشان": 232407, "ែត": 151623, "▁කරගැනීම": 200722, "オーバー": 237068, "▁Fahr": 52868, "▁Ker": 7354, "▁նամակ": 131622, "▁ลง": 92772, "English": 135832, "▁αφορούν": 156463, "▁tujini": 192413, "Toutes": 163479, "▁succeed": 214493, "▁៤": 36239, "▁wspaniały": 195242, "▁dön": 37239, "の流れ": 171330, "▁udvikling": 41406, "▁отворање": 222504, "▁Cagliari": 233846, "▁կազմել": 175205, "tisch": 31607, "▁çeşitli": 52903, "▁راستای": 148699, "▁θερμ": 114512, "▁changing": 151134, "擴展": 230592, "ىكى": 160094, "litz": 89191, "▁Էջմիածին": 233084, "▁erinevad": 166261, "ա՞": 154828, "▁БОЛ": 57555, "个别": 211645, "▁Зворотн": 126762, "▁guste": 155886, "▁പ്രചരി": 241193, "を使い": 173240, "stest": 80686, "▁okolja": 156243, "▁папулярна": 239236, "▁szak": 18358, "▁soutěž": 106889, "របួស": 155813, "▁новиот": 103263, "▁නිකං": 239731, "▁BlackBerry": 163225, "▁razreda": 130672, "isesti": 14247, "▁dermatolog": 156859, "に戻": 110577, "▁nekik": 137978, "▁übertragen": 171243, "에서": 1180, "ية": 648, "льц": 118036, "▁causam": 147593, "▁سرحد": 65632, "当我": 179185, "▁spatiu": 119968, "сынып": 138727, "的时代": 154972, "▁אויפן": 148336, "መንግሥቱ": 192709, "▁Forrige": 216842, "▁تحدث": 122105, "▁القديمة": 140099, "黑龙江": 169262, "▁tied": 146543, "▁жағдайын": 167032, "▁접": 74787, "❍": 249699, "kostnað": 101576, "▁آنے": 42453, "▁следующее": 203898, "▁चालू": 97491, "▁חג": 83336, "▁فکری": 156041, "▁работодателя": 199766, "▁dziennie": 179760, "▁ανάλυση": 176601, "▁Konkurrenz": 235661, "▁ersten": 13911, "لەشتۈر": 114928, "สรรพ": 182495, "▁oude": 64892, "thema": 140363, "▁(2004)": 105498, "▁viesnīcu": 61343, "▁քր": 204698, "▁пояс": 52207, "▁τρόπος": 129957, "▁Adorei": 189357, "▁opmærksomhed": 199339, "▁درجة": 81312, "▁jag": 810, "▁қалалық": 149899, "▁нерселер": 213837, "ደቡብ": 135546, "▁காத்த": 192403, "▁бүсгүй": 146771, "сіл": 169977, "စေ": 31782, "ത്": 2117, "▁đẩy": 56363, "▁эмне": 34177, "ുകളില": 220855, "▁kontaktannonser": 61303, "▁Assembleia": 182600, "▁कस": 69671, "▁CÁC": 148907, "▁Igra": 113744, "СТВА": 159215, "▁ngendlela": 224534, "த": 4875, "neitä": 157907, "▁gazte": 33928, "▁имя": 80467, "▁jäi": 29747, "▁Zapraszam": 200733, "▁покоління": 188848, "‒": 149447, "▁ব্লগ": 108099, "合わない": 218259, "▁брата": 114884, "▁dostluq": 228897, "simies": 162070, "▁اڄ": 34138, "してくれ": 133931, "▁गिरी": 144469, "▁mangia": 166372, "▁caracteriza": 84234, "EO": 70725, "ಕೃಷ್ಣ": 145707, "▁эмнэлэг": 152908, "นะคะ": 47635, "▁આધાર": 97830, "▁šesti": 159881, "മ്പു": 117179, "واقع": 79946, "▁nikako": 120407, "سې": 40339, "▁سلسلي": 201380, "▁Streaming": 163274, "▁tunnelma": 153275, "▁இல்ல": 103333, "▁навчально": 118626, "▁كەل": 126626, "▁carcere": 205852, "❕": 247324, "ຄ້າ": 71247, "ata": 1724, "▁עוד": 13377, "▁била": 9944, "▁эрхэм": 200962, "▁vihdoin": 199130, "▁народи": 136793, "tarëve": 127131, "பொருள்": 174371, "sit": 6084, "ალ": 14084, "سبب": 77719, "ὗ": 249495, "цэ": 25015, "▁Crkva": 228859, "▁겁니다": 166084, "▁جہاں": 34678, "▁punte": 110526, "▁Chí": 33872, "▁Popis": 112602, "▁مختلفی": 144255, "▁biograf": 177514, "▁opnå": 95652, "▁المغ": 116330, "▁vier": 10702, "▁partener": 71489, "קשר": 127662, "▁rozhodla": 158318, "▁مبینہ": 186725, "▁ребят": 241872, "▁ასევე": 22166, "nière": 164081, "▁неабходныя": 211948, "▁Einen": 140291, "ሰት": 108764, "▁текущ": 142571, "wanie": 45184, "ilka": 69507, "ведіть": 216461, "▁Steam": 101059, "ינע": 71512, "mängu": 116710, "▁제품": 26157, "ਦੂ": 114863, "▁територію": 206099, "Ebre": 143313, "दुर": 125896, "рске": 103950, "▁posar": 45745, "beni": 64348, "図書館": 221760, "갔": 116740, "сто": 7572, "▁мелдеш": 180159, "▁transversal": 211385, "▁niệm": 50519, "▁Dacă": 20253, "օ": 52951, "リラックス": 211279, "▁1883": 163055, "▁،‬": 157356, "▁παράθυρο": 216625, "▁vorig": 172169, "▁elmúlt": 69105, "▁tahlil": 122158, "▁nur": 1649, "▁Ég": 14118, "▁dostał": 184879, "နိုင္": 123767, "Server": 193348, "סתובב": 234422, "▁lemak": 90956, "우드": 199873, "▁mógł": 93718, "▁කවර": 215136, "▁Medlem": 87071, "▁خۇدا": 175067, "ฒ": 170294, "닦": 243815, "▁ഞായറാഴ്ച": 234206, "▁fájdalom": 188868, "▁ninguén": 156483, "ლ": 8142, "▁humain": 104329, "▁Eftersom": 119439, "▁Loma": 166681, "▁ľahké": 220443, "▁Chişinău": 223066, "durch": 113952, "▁akar": 17649, "▁sexa": 45675, "▁رسمی": 55626, "عمدة": 233320, "تېر": 83017, "▁Pasangan": 211121, "▁Швеция": 231690, "клет": 128990, "▁똑같": 217241, "סיק": 150541, "▁хувьсгал": 240014, "▁basketbal": 142739, "сентябрда": 228262, "▁acestui": 37046, "颌": 246825, "▁helbest": 130374, "▁legatura": 120701, "▁બીજા": 73917, "▁ánægð": 239064, "लार्इ": 218236, "▁alrededor": 82154, "▁originale": 45205, "▁بشأن": 83287, "▁vyjadril": 241361, "▁але": 3573, "▁മഹാ": 85622, "chron": 101966, "▁երկար": 69839, "ที่ไหน": 107622, "行为": 23724, "kväll": 76506, "▁жаса": 32313, "接続": 141744, "프레스": 219440, "īga": 16897, "▁सोना": 194158, "โลก": 25834, "▁Hori": 71871, "▁мотоцикл": 146722, "ವಾಗಲಿದೆ": 199006, "বীর": 139866, "ερά": 160075, "xu": 16220, "▁léiriú": 214787, "▁ଚୋର": 174641, "▁سینئر": 203097, "ዉ": 12131, "▁ક્યારેય": 160186, "▁स्या": 128096, "ただし": 73814, "▁كلمات": 141566, "▁пят": 54441, "▁samospráv": 158148, "ូស": 161819, "▁bliver": 7400, "ulla": 20446, "▁кезде": 20032, "▁nodweddion": 239618, "▁neurri": 132592, "דאג": 181692, "😜": 243941, "▁phấn": 156753, "▁elegant": 27650, "航空公司": 103358, "affi": 83820, "ስለ": 176282, "▁žēl": 222440, "พรุ่งนี้": 234486, "ಖ್": 204708, "▁gangen": 80063, "▁paix": 127603, "▁trofe": 100585, "එන්": 152799, "睡": 19966, "▁Mind": 29616, "▁καλοκαίρι": 133721, "▁научи": 45112, "vê": 23061, "▁utilisée": 174046, "oana": 55237, "🦁": 247595, "دلو": 178091, "milit": 120430, "▁129": 53472, "▁ponudu": 204476, "▁Επικοινωνία": 200816, "▁ইউনিয়ন": 163208, "▁линк": 49291, "vum": 37604, "arðandi": 153462, "りの": 97261, "ităţi": 73824, "があること": 199251, "млади": 132244, "▁viagens": 192905, "ULI": 92491, "▁సినిమాను": 198885, "kiekko": 226546, "szy": 14643, "▁ليس": 22400, "ટ": 5448, "▁q": 8096, "ටා": 117953, "wy": 5014, "▁מר": 18367, "▁laba": 32202, "▁դրությամբ": 222827, "▁semble": 36777, "++": 37223, "▁सां": 105906, "▁możliwy": 232667, "▁रोज": 57752, "stid": 51190, "▁pièces": 99423, "▁ממ": 46748, "▁muungano": 234335, "▁Op": 2331, "▁Management": 25924, "▁асоциация": 236158, "ಾರ್ಥ": 103958, "▁třeba": 25986, "▁necessario": 41824, "▁Horoscop": 224966, "▁நம்ம": 103454, "κληρ": 120184, "lare": 38103, "▁observer": 160073, "▁हस्ताक्षर": 155199, "▁बुद्धि": 105202, "警方": 41090, "▁Ime": 74175, "▁promoção": 153735, "▁diyar": 35113, "353": 127875, "▁തുറക്ക": 201820, "▁Dost": 85046, "▁ਕਾਰਵਾਈ": 153601, "▁gerektiği": 155094, "▁εκπαιδευτικού": 231076, "▁මරණය": 153489, "▁завршува": 192164, "肽": 245255, "िब": 157307, "▁පෙන්න": 109242, "▁දැක්ක": 116399, "▁спутник": 197849, "▁පනත": 132278, "▁Доколку": 126016, "▁visar": 36822, "▁klicken": 147098, "ակերպ": 140110, "▁رجوع": 194043, "▁yana": 12395, "▁දීර්ඝ": 223561, "▁eskaintzen": 117087, "▁вести": 27714, "жай": 46719, "▁člena": 50862, "▁spēja": 165065, "▁دوشنبه": 96526, "▁кај": 22303, "▁cria": 74495, "需要": 2745, "と考えています": 179472, "▁júna": 168173, "▁CP": 41935, "▁shume": 38142, "▁need": 3871, "bok": 12720, "▁хубаво": 147025, "▁باتیں": 122830, "MeToo": 170085, "▁transparente": 131482, "▁πρόσωπα": 180104, "чення": 40144, "لضمان": 175522, "▁spesso": 27477, "▁ନିକଟ": 177698, "▁ոճ": 195020, "σχε": 86417, "▁pavadīt": 226353, "▁ਵਿਆਹ": 108300, "▁catering": 141610, "▁activitat": 120987, "▁ырчы": 57426, "智能手机": 178521, "ידי": 69031, "▁betyr": 49928, "▁interese": 37036, "ਵਾਈ": 123526, "▁පාර්ලිමේන්තු": 103018, "▁ඔහු": 12687, "极端": 182254, "Маленьк": 227323, "红": 11366, "なければならない": 124006, "▁పోస్ట్": 75251, "▁местото": 180280, "▁Ndege": 229669, "Росијска": 236956, "蚀": 232262, "▁Tân": 49320, "▁وعلا": 188290, "聯": 16414, "▁valle": 118666, "▁ניו": 82977, "▁краін": 51354, "ittele": 119773, "шне": 52766, "▁стра": 54949, "▁පීඩා": 221002, "ojums": 119558, "好看": 113139, "십": 49382, "▁Większość": 214003, "▁Bas": 12506, "世界上": 70671, "▁مزدور": 127269, "▁Олег": 79065, "▁detaje": 194273, "▁ổn": 65014, "മ്പ്": 84513, "▁réponse": 48522, "的样子": 113238, "51)": 62634, "▁contar": 24505, "▁fantatra": 225518, "није": 18989, "ପ୍ରସାଦ": 180943, "▁индивидуални": 214121, "▁världen": 44874, "▁tradución": 218892, "▁tránsito": 228301, "ᠢ": 248534, "🔬": 245928, "▁zdjęcia": 45935, "▁විපක්ෂය": 187545, "▁Cyn": 49715, "аад": 48367, "ιδ": 79453, "▁ակտիվ": 68007, "ሞ": 13357, "▁അറ": 156583, "inspiration": 209024, "▁вистав": 97618, "ქალაქ": 194929, "ਪਨ": 199000, "ضطر": 156698, "▁środek": 225327, "▁potentia": 139642, "▁mindössze": 189365, "▁mladí": 163758, "▁проце": 74370, "pel": 5310, "ბით": 68179, "▁አዝ": 188253, "▁kebudayaan": 175356, "▁हमेशा": 99796, "▁विक": 120623, "saba": 92027, "▁unutar": 91096, "▁ciri": 73793, "▁instituições": 156461, "▁wakimbizi": 237881, "▁declarat": 29821, "▁पुस": 95989, "▁tentar": 54746, "MMA": 88852, "▁tarina": 78465, "figura": 123310, "▁تمیز": 175667, "▁Dumitru": 241057, "ควบ": 234844, "▁nakapag": 201821, "▁орлогч": 230362, "▁සිටීම": 163206, "لمرحلة": 242512, "impi": 87520, "କ୍ଷା": 161338, "▁ліс": 59431, "▁2500": 46486, "хор": 118833, "ноў": 64196, "ପାରନ୍ତି": 160136, "▁კორპუს": 176578, "וור": 112871, "▁részben": 141249, "湖": 19664, "▁سرد": 50752, "▁ինձ": 36187, "▁регламент": 62901, "ଟ୍": 19325, "▁సాంగ్": 194489, "▁niej": 36470, "το": 4259, "ieni": 60720, "▁Pagkatapos": 215393, "▁отношении": 51752, "▁Santander": 192857, "▁Lisesi": 140215, "▁учиртай": 221100, "dica": 18601, "▁чувств": 93527, "Свет": 175295, "▁Education": 43154, "▁ಮೌನ": 239756, "▁določi": 80849, "▁hittills": 203069, "mpel": 31653, "▁pokrajin": 196576, "쎌": 248626, "▁pogod": 32586, "ārija": 195523, "৪০": 112644, "▁재산": 215982, "ymų": 134095, "ওয়ার্ড": 140602, "感覚": 128821, "▁fógra": 211920, "ლიანი": 131951, "▁අන්ත": 151110, "скіх": 35568, "という": 2573, "▁myśli": 82734, "em": 195, "ياتي": 150070, "▁Jo": 2177, "▁ხორ": 176203, "спар": 86688, "▁konuda": 52257, "▁máquinas": 147515, "스카": 195526, "嗅": 220865, "▁ihtiyacınız": 220325, "▁најголем": 74987, "▁ირან": 169619, "▁Herr": 27420, "гоо": 70278, "▁کاپی": 112081, "▁coll": 122907, "лима": 89015, "សាច់": 121443, "▁horizont": 91130, "ышкан": 90521, "ဂ်ာနယ္": 230463, "▁দাবিতে": 170478, "čenje": 55767, "▁sklepu": 126378, "▁인생": 113191, "▁прошла": 187339, "▁байранд": 202505, "▁прекр": 138543, "▁afleiðing": 240783, "Настоящи": 228926, "安く": 174319, "▁každou": 189277, "▁resort": 70634, "▁imposto": 85304, "კეთილ": 127361, "盹": 246818, "ssimi": 84081, "▁القدر": 185215, "дељ": 100492, "fjord": 76585, "เลข": 58564, "보자": 125199, "▁Espai": 117210, "โหวต": 242273, "▁experience": 16981, "ھل": 78843, "▁mehreren": 148748, "▁ക്വാ": 215648, "blomst": 131890, "▁непрекъснато": 200006, "▁ಯೋಜನೆ": 48724, "▁วิธี": 40321, "▁жашоо": 68142, "▁связи": 20755, "▁bheith": 18054, "▁готов": 33103, "सिया": 124681, "▁தகவல்களை": 231856, "skor": 39925, "困擾": 178887, "▁האי": 28977, "▁pensione": 162450, "竅": 244411, "▁beschlossen": 202225, "▁terimakasih": 231288, "ປະທານປະເທດ": 207636, "▁predpisov": 157161, "tiile": 49580, "▁कुरामा": 177450, "ázat": 70795, "▁cymorth": 188382, "▁ndoa": 132241, "▁үнэн": 79884, "清水": 177586, "▁риба": 88658, "EA": 24040, "۹۰": 121060, "朗": 42432, "▁børnene": 143622, "ුව": 25745, "▁ನಂಬಿಕೆ": 200492, "өсөн": 166901, "▁pasakojo": 207121, "הכרה": 230684, "stra": 2816, "▁защищен": 226731, "▁mamy": 28210, "▁consentono": 233223, "kuha": 60863, "▁رياض": 146628, "úl": 23970, "▁packaging": 196163, "▁audience": 95771, "увалося": 181293, "▁مسلمان": 27265, "▁tine": 18681, "▁säga": 34845, "▁кезек": 87995, "▁võõra": 188504, "▁خالص": 164085, "▁tashkilot": 122338, "のある": 31647, "▁jaar": 3325, "eye": 31463, "ково": 48366, "▁Visual": 73372, "吴": 47374, "▁ס": 3373, "▁Rally": 131224, "▁අනික": 203666, "▁जनता": 27620, "▁Администрация": 229514, "かも": 93965, "蝟": 249426, "веч": 71629, "▁mom": 32318, "ສິ່ງທີ່": 168067, "▁equipamentos": 111478, "runde": 95611, "▁повноцінн": 231949, "▁ullamcorper": 36000, "▁Fuß": 96707, "▁hij": 5864, "ग्": 20071, "▁desenvolvido": 134782, "▁κοιμ": 198078, "思路": 100243, "▁ទៅ": 9629, "▁akva": 109783, "ejší": 110712, "▁երեկ": 149167, "▁Physik": 237603, "▁Maqal": 189544, "▁ആരോ": 211158, "යක": 45568, "静": 25086, "▁констат": 144768, "▁parcela": 131228, "▁ಫಂಡ್": 229238, "▁օգտագործ": 133852, "▁Зохиогч": 159786, "▁Norges": 26991, "▁Gul": 16965, "司": 23419, "▁situaci": 63150, "▁hep": 30368, "▁laborum": 110418, "▁باست": 108988, "▁LOS": 99264, "▁timpului": 147221, "▁ویژه": 22987, "ándolle": 241844, "bygget": 150227, "▁слово": 37742, "▁terça": 81526, "▁Додека": 229578, "▁تشکیل": 35693, "хол": 76052, "▁chose": 19667, "обслужива": 177058, "MC": 32557, "เตือน": 108284, "▁түүнээс": 216255, "▁Agosti": 152424, "▁मात": 120070, "▁warbaahinta": 182963, "題目": 222500, "비": 4274, "▁антропо": 188994, "อุดรธานี": 206496, "▁Tai": 6098, "了不少": 110352, "▁osobe": 42941, "חבר": 84514, "證券": 188239, "▁ہاتھوں": 122529, "▁результаты": 90773, "▁posterior": 39225, "▁Maio": 128641, "ப்பு": 6343, "▁theksuar": 196549, "▁الأكثر": 125097, "ኢየሱስ": 179504, "▁İzmir": 48831, "3-3": 163496, "▁pašvaldības": 103548, "▁nüüd": 30118, "▁ecclesia": 47200, "چۆ": 185637, "▁dda": 52361, "小吃": 159278, "▁атындағы": 58474, "▁הצרפתי": 238432, "▁bege": 103307, "aminen": 83805, "▁трет": 109016, "▁uza": 72613, "▁bekannt": 29207, "▁شہزاد": 181774, "▁Regal": 149611, "▁stjórnmála": 193628, "隷": 249661, "søge": 137099, "ികളുടെ": 151492, "Ō": 245338, "▁अद्य": 201638, "ছিল": 75004, "ʃ": 245313, "▁moartea": 163776, "ólogo": 82494, "▁putea": 10458, "▁spännande": 75976, "逞": 244781, "箸": 245375, "▁సె": 38684, "▁Auskunft": 223065, "▁Pati": 68886, "ací": 37322, "▁بعين": 206801, "arre": 32055, "▁неабходна": 86163, "▁ნაბიჯი": 235169, "▁гульня": 138701, "▁keresztény": 164140, "▁dzimšanas": 203067, "្ស": 155963, "場合がございます": 158000, "▁sindaco": 152963, "స్తూ": 74212, "▁orari": 174348, "▁ప్రకృతి": 233462, "▁urur": 121498, "▁ጎ": 40178, "ရိ": 34549, "▁puheenjohtaja": 127258, "▁electr": 192196, "▁åtgärder": 161596, "꼐": 248060, "פס": 17748, "▁строительства": 85699, "▁aktivitātes": 201405, "▁олборло": 219270, "бери": 121166, "чкой": 168329, "▁نمائش": 208344, "▁Mia": 45950, "ಸ್": 3022, "hó": 34282, "▁Klage": 157565, "Brit": 111345, "▁thăm": 51297, "▁අර්බුදය": 200841, "▁આખી": 222024, "▁күшейт": 240779, "▁razne": 150918, "กลับ": 28805, "▁аккаунт": 186692, "▁vile": 66275, "▁시민들": 213940, "Jo": 16604, "▁kjedelig": 219302, "▁യുദ്ധ": 146463, "▁mez": 59416, "▁курамы": 187832, "hoof": 114478, "▁Hockey": 193171, "▁pře": 5856, "זיקה": 127221, "ला": 1404, "lielā": 213058, "▁diferen": 73900, "ຂາຍ": 94663, "लै": 62660, "ラン": 48410, "迟": 85564, "▁augstāk": 94541, "▁nợ": 100915, "▁לבטל": 165406, "▁Conti": 137425, "▁받아": 54781, "▁megfelelő": 36808, "▁toca": 66454, "▁رجل": 69662, "▁ogystal": 103468, "chwa": 50059, "▁මෙහෙම": 106365, "примор": 236597, "ਯਾ": 146107, "▁espiritual": 110852, "▁entrenador": 190786, "▁aproveitar": 128561, "なこと": 108610, "零售": 60621, "qam": 67501, "▁рівнем": 224011, "▁заседания": 165699, "▁Alhamisi": 235653, "▁айрым": 102434, "színű": 118356, "▁Въз": 84922, "ተካ": 115335, "挽回": 221043, "▁oddych": 159602, "▁duża": 168649, "▁լուծ": 169860, "▁Ран": 121186, "▁milit": 34579, "plätze": 97485, "ết": 27106, "▁puses": 121521, "精準": 197851, "krāso": 207180, "即使": 28010, "йық": 150030, "▁상반기": 239716, "▁example": 27781, "": 248586, "▁کیا": 1999, "▁నియోజకవర్గ": 232518, "diefstal": 231399, "อร์": 17807, "▁permulaan": 221951, "▁රී": 5418, "보드": 117660, "ටයි": 95991, "ub": 5829, "嬉しかった": 240558, "▁kohustus": 93585, "ДЖ": 176090, "▁berfireh": 191879, "ധ": 27692, "ppä": 76077, "260": 97544, "tai": 5686, "▁तह": 62454, "ဆင်း": 165094, "▁شئ": 29198, "▁Apartamento": 169478, "▁Материал": 114540, "▁ერთ": 9628, "chilar": 65120, "▁жанында": 187463, "veitinga": 232940, "শি": 52730, "▁რედაქცი": 240722, "मराठ": 125934, "▁връзка": 39991, "▁ұйымдастыру": 70195, "▁Samo": 20890, "product": 57877, "▁njëjti": 181508, "תר": 39222, "▁Chelsea": 44517, "▁дійсно": 118304, "▁koles": 112387, "▁charge": 25534, "▁schema": 61903, "дъх": 162861, "▁გარშემო": 210471, "▁protein": 21308, "▁اڌ": 176690, "▁rašo": 125909, "▁יוסי": 219015, "▁laadukas": 236253, "inf": 46632, "▁відповіді": 153968, "▁Колко": 112835, "ណ្": 124437, "▁когда": 4222, "▁ਖਰਚ": 239502, "▁hoeft": 100626, "▁mantém": 203668, "▁политика": 27784, "▁skaper": 158629, "▁жеңіс": 190889, "▁әрі": 52900, "▁زائد": 65713, "▁പശ്ചാത്തല": 217037, "වන්නට": 123669, "นําไป": 87787, "▁solitari": 180417, "קטיבי": 147539, "▁môžeme": 114677, "▁สี": 59409, "ពេញ": 83650, "spicio": 181960, "▁gertatzen": 167553, "วร": 85976, "▁pembangkang": 120016, "▁kelio": 75151, "▁बावजूद": 188411, "▁Inače": 216822, "пропорционал": 229806, "▁Nuevo": 187256, "ঙ্গ": 26564, "рады": 30837, "▁خوښ": 127113, "▁Täällä": 176658, "▁bröst": 92384, "▁apta": 97388, "▁procura": 32697, "ندا": 13874, "趕緊": 201689, "▁nyata": 65409, "▁מיוחדת": 195850, "▁Parang": 150680, "▁gossip": 207039, "ік": 18902, "ကူး": 50716, "▁сепак": 95387, "▁کند": 3099, "▁Вит": 158025, "ااااا": 171316, "▁dæmi": 153536, "▁ब्राऊजर": 142017, "▁щастие": 158446, "▁प्या": 66321, "▁గా": 8686, "▁कुलकर्णी": 235320, "▁premsa": 121747, "▁fácilmente": 192431, "▁dhinteen": 238662, "▁αρχικά": 213727, "▁aptent": 197946, "類似": 103765, "բժշկ": 198615, "▁עמי": 183586, "▁различите": 201938, "▁санхүүжилт": 176973, "お客さん": 175479, "▁ynformaasje": 174594, "▁struggle": 151994, "ទិញ": 107315, "屏幕": 111482, "▁naročila": 159066, "ນະ": 62079, "heid": 3896, "▁ተጨማሪ": 90893, "▁paulista": 208832, "▁امر": 18618, "▁ក្រុម": 26577, "▁propio": 28340, "torum": 81160, "▁વિગત": 173062, "▁инспектор": 125521, "นน": 149417, "비를": 131496, "▁sendes": 122403, "▁korupci": 99164, "▁느끼": 129322, "▁bait": 63670, "tavaa": 110979, "▁dramatic": 155034, "▁koko": 7994, "▁итогам": 168590, "еп": 59957, "▁Обяви": 228881, "▁citat": 74468, "取り": 27437, "▁muzikant": 177942, "▁três": 26588, "▁dificultades": 146823, "fiq": 61287, "▁သူတို့": 123756, "▁Қыз": 100303, "においては": 195911, "تنافس": 181920, "짚": 243890, "▁blonde": 96948, "▁কথা": 20559, "ကျပ်": 199294, "▁усили": 91263, "▁Snap": 121190, "јуће": 119978, "▁දුරකථන": 127265, "လည္း": 18498, "שמאל": 132736, "▁хэрэгжүүлэх": 85870, "perioden": 145072, "იფ": 84574, "▁użytkowników": 128077, "____": 151321, "▁подобрява": 213518, "▁במקביל": 218783, "▁ცხოვრება": 62043, "ებენ": 50837, "🏾": 245652, "▁driving": 132442, "价值观": 152743, "▁повідомлялося": 240982, "욥": 246604, "▁մեթոդ": 194852, "▁چوندا": 191109, "▁κόκκινο": 213982, "ลิง": 183698, "ίσουμε": 127195, "تبع": 78699, "▁ընկ": 117516, "▁mechanizm": 102515, "nahme": 34991, "▁μαθητ": 210761, "▁ڪامياب": 112552, "دري": 115714, "▁doirasida": 155220, "▁долю": 161919, "▁आम्ही": 45980, "▁சரியான": 190629, "▁दूसरा": 171172, "▁التحدي": 184448, "毫": 168723, "▁υπηρε": 197234, "▁Trik": 151008, "ню": 7324, "ڑے": 70679, "▁Arna": 106094, "▁wybrany": 160234, "ပ်က္": 103602, "▁दीपक": 139835, "ŠE": 95530, "▁Wśród": 187503, "esecuzione": 182994, "▁kejayaan": 121096, "▁foglalt": 160427, "▁أعط": 205469, "ಬಹುದು": 26954, "▁Румъния": 183336, "▁сторін": 152866, "▁орой": 190877, "▁කිසි": 85562, "IB": 29877, "▁concetto": 185947, "ten": 510, "▁solamente": 105388, "atmosfera": 183622, "澹": 247777, "валу": 123365, "▁मागणी": 112351, "غر": 34005, "▁maji": 26542, "uotos": 136307, "▁Kaz": 66306, "၂၂": 160116, "▁легитим": 182637, "lerini": 7339, "▁Hodi": 155600, "▁nô": 95061, "íčka": 135133, "リスク": 105990, "KANAK": 212319, "▁ceļo": 63852, "гъ": 137350, "▁hạ": 36771, "▁tiếp": 6998, "yya": 32056, "▁julle": 22952, "▁acesta": 23181, "КЛ": 160434, "▁кайт": 145586, "▁pomyśl": 193057, "▁Тада": 183138, "▁cupiditate": 216601, "▁miðbænum": 213115, "▁mir": 2296, "▁molesta": 185679, "▁Ас": 31382, "▁berish": 42928, "▁Усі": 87031, "ဖေ": 203324, "▁Senarai": 173428, "以上に": 117725, "▁route": 36439, "ированию": 160974, "上班族": 204231, "▁კვირა": 112015, "襟": 243822, "▁třídy": 215531, "▁Wechsel": 182216, "պար": 116139, "belah": 115001, "кратко": 191342, "▁obiskal": 207762, "▁anunț": 187293, "져": 25436, "ുകളിലെ": 198088, "กรม": 78524, "▁tant": 7837, "▁เที่ยว": 131301, "▁МЕНЕН": 148575, "▁යය": 47185, "▁سيد": 38197, "▁भगवान": 59351, "▁Eisteddfod": 134760, "▁absoluta": 91141, "▁աստիճան": 118956, "actif": 126907, "鍰": 249776, "▁kannata": 108908, "▁раслін": 210350, "▁Wester": 125647, "pira": 57311, "யைப்": 127316, "▁zentro": 193814, "▁Nazirliyinin": 49442, "▁Ennek": 83042, "▁namanya": 76939, "toimen": 127882, "▁fus": 57574, "▁xodimlar": 235185, "▁følte": 142947, "▁вихід": 108044, "рөө": 118107, "▁beraber": 41719, "▁रहेका": 28273, "▁Rex": 74650, "▁යළි": 113193, "リー": 21711, "▁reciente": 97425, "▁sıralama": 218713, "▁natao": 136928, "▁autoridad": 133117, "▁presenza": 31926, "▁राखेको": 171607, "▁рублей": 28403, "সেবা": 211083, "▁reprezenta": 38342, "有趣的": 88772, "▁استحکام": 186694, "▁соответствовать": 226236, "▁дж": 126704, "▁mahdollista": 46534, "фф": 85037, "ന്ത": 24197, "▁Portuguesa": 203442, "▁alguses": 116830, "▁egentlig": 29935, "▁Bianco": 241461, "мпи": 149092, "▁୨": 18816, "▁సభ్య": 217334, "▁Мило": 115712, "ió": 12632, "▁Januar": 47171, "▁WILAYA": 212235, "▁płyn": 90047, "市内": 202981, "▁દુનિયા": 106577, "▁ගණනක්": 210703, "▁الأمام": 225124, "▁speciális": 161932, "యర్": 79203, "転": 47024, "▁idei": 49141, "اں": 10252, "▁வெள்ளி": 197508, "sammlung": 215289, "▁организован": 84111, "▁шийдэх": 230575, "x": 425, "▁चे": 36004, "▁Богу": 70177, "ნე": 12396, "▁228": 133008, "▁hänelle": 160963, "▁didakwa": 170454, "▁ଆଜି": 16383, "▁ေရး": 90427, "▁талаас": 190023, "▁правото": 87473, "▁olanak": 150285, "▁urmat": 124240, "▁rika": 138539, "▁jelenlegi": 143153, "ទី": 22624, "欧美": 139658, "url": 25002, "▁bestämde": 220659, "▁తేలి": 191057, "▁декларации": 219316, "▁ذلك": 4832, "潑": 244349, "▁സ്വന്തം": 63562, "კმაყოფილებ": 196515, "KEY": 186104, "aaseen": 221228, "▁Tempat": 39400, "Radio": 119517, "מיס": 189098, "▁Bảo": 46585, "▁Куб": 84708, "ەيلى": 197167, "▁núna": 119010, "wm": 22150, "полис": 178452, "▁Argent": 124575, "▁الصورة": 86224, "▁Av": 4908, "▁Next": 4997, "▁czegoś": 148916, "▁Го": 11630, "ปัตตานี": 235228, "▁पढ्न": 150620, "▁indigna": 139949, "▁avez": 19116, "的规定": 115473, "획": 243467, "ေအ": 150183, "▁Pred": 7145, "▁põhjenda": 209539, "▁Mio": 81949, "▁možná": 66073, "▁pijač": 170917, "▁θέμα": 27654, "▁მაღალ": 140744, "▁lafiya": 161339, "一顆": 176117, "алната": 71210, "صاد": 82170, "▁тийм": 84828, "сія": 40991, "▁แต่": 4454, "▁ತೆಗೆದುಕೊಳ್ಳ": 183668, "▁Chocolate": 167499, "▁nacemento": 220656, "▁ћете": 144123, "▁انگل": 158335, "्याउन": 197575, "▁ابتلا": 170165, "▁оруулалт": 131758, "▁ڏسڻ": 122892, "δων": 112240, "▁മാത്യു": 217507, "▁ಹಾಗೆಯೇ": 217577, "υθ": 67676, "▁tanaman": 74319, "ຂົງເຂດ": 217879, "▁vị": 7376, "▁തയാറ": 235415, "كره": 197722, "ซึ่ง": 31779, "ставьте": 177276, "▁интегрира": 188430, "▁grundlæggende": 226651, "કુલ": 98526, "▁brīnum": 215407, "▁վերցր": 224064, "mērā": 188344, "▁ଗଣମାଧ୍ୟମ": 224879, "▁تبلیغاتی": 195928, "▁propicia": 216440, "بے": 131538, "bian": 62806, "▁osobu": 119878, "xor": 94240, "▁potekal": 88659, "▁πλοία": 241519, "되면서": 183991, "依靠": 98450, "▁genade": 151208, "ЗА": 50341, "▁הדור": 201239, "▁prvo": 24362, "▁enfoque": 162936, "▁Програми": 179649, "ања": 44758, "▁zöldség": 183269, "매": 16595, "▁зүйтэй": 218918, "طل": 35753, "▁останал": 162495, "▁сила": 22659, "▁qalır": 172203, "▁yrityksen": 138162, "▁Дзярж": 239851, "▁ጣቢያ": 136150, "▁బాలకృష్ణ": 216259, "▁കാര്യങ്ങൾ": 188804, "มักจะ": 124489, "▁μελλοντικ": 232445, "ोऽपि": 183902, "▁motsvarande": 222741, "▁tehnologije": 109461, "inkite": 132325, "▁Ав": 44822, "▁stan": 12007, "▁bibliografi": 191623, "出": 1040, "日は": 56444, "मैं": 149536, "gruppe": 45462, "▁99%": 83147, "lėktuv": 178189, "▁കട": 38337, "U": 1062, "▁aniversário": 172988, "▁بتواند": 151126, "द्वारे": 121716, "fuz": 63220, "▁permes": 132374, "хот": 60133, "gni": 13866, "iranja": 35977, "grze": 143665, "EPA": 72565, "tso": 51566, "▁Pioneer": 228409, "▁organisé": 104546, "橱": 244165, "▁trato": 122124, "▁दुख": 75853, "▁przesył": 114722, "АЖ": 79072, "하셔야": 234219, "▁सामान्य": 38338, "▁ನೀಡುವ": 100883, "▁இருக்கு": 67946, "▁memnun": 129126, "▁πιστ": 114877, "писать": 149330, "▁metros": 29461, "Ислам": 209925, "موظف": 62370, "מם": 112907, "por": 4680, "aja": 8949, "ثبت": 83008, "အခမ်းအနား": 239228, "כונים": 114434, "▁adatkezelés": 188902, "▁201": 76621, "▁ಪೆಟ್ರೋಲ್": 187536, "▁Mw": 56964, "พอ": 30423, "ँ": 4739, "▁mantenir": 135986, "▁haugesund": 222661, "▁усмивка": 230760, "▁dauert": 133968, "▁موٽي": 209761, "▁பழைய": 148687, "▁Kosovës": 14338, "▁ဘီဘီစီ": 64305, "▁MF": 99234, "▁Durchschnitt": 215259, "tust": 40892, "▁Sadəcə": 235847, "Histori": 174131, "▁september": 11691, "▁команду": 132782, "preşedinte": 138849, "▁градот": 88648, "▁americké": 135848, "▁ભવિષ્ય": 145570, "▁paano": 4903, "▁طب": 54986, "sivusto": 124965, "▁устойчивост": 222994, "లీ": 21104, "▁Helsingborg": 205732, "▁hír": 40089, "▁মহা": 76770, "වීමට": 59790, "▁cậu": 25327, "▁Babel": 201994, "▁Ή": 71299, "▁پخوا": 148083, "lp": 26775, "▁ծրագիրը": 158557, "длын": 101656, "▁tepër": 69217, "▁grond": 27006, "▁башкаруу": 98480, "▁እንዳለው": 216098, "▁ირაკლი": 128299, "▁пејач": 207508, "▁Από": 15441, "▁hän": 8538, "▁ලැබුන": 170655, "▁üniversite": 67436, "▁ՀԱՄԱ": 180985, "▁منتصف": 199990, "▁Аб": 18531, "▁участка": 90023, "ก็ไม่": 79486, "ישו": 170763, "▁Monster": 89715, "▁कोर": 149931, "▁kažkas": 204846, "wor": 23432, "pill": 121934, "▁ingen": 4949, "▁Beberapa": 46783, "▁MINI": 86240, "▁особено": 28213, "▁donacij": 233652, "沒想到": 106136, "DAR": 57227, "ကြပါတယ်။": 236661, "▁રૂ": 55828, "操作": 13160, "ต": 3356, "ú": 971, "▁suihku": 177027, "▁всего": 8118, "▁raid": 79904, "▁atbrīvo": 155825, "▁koniecznie": 199165, "▁straipsnį": 209565, "ในเกม": 162355, "목포": 209379, "▁උඹ": 53500, "流通": 136511, "▁ευκαιρία": 92362, "培養": 96322, "▁መ": 2370, "▁ھەدىس": 227988, "▁oshirish": 49014, "▁{\\\\": 185089, "岷": 247495, "kierto": 188792, "మం": 56088, "▁गगन": 225070, "ट्री": 124493, "▁우리나라": 100509, "▁ඇති": 3764, "了我": 77494, "011": 136485, "▁Lust": 80842, "▁Lopez": 153355, "▁చెబుతున్న": 225723, "▁လုပ္": 41827, "เงินเดือน": 221639, "▁należał": 214524, "▁Einladung": 204796, "▁lapisan": 147802, "鰂": 249371, "▁märg": 104224, "▁senzill": 154284, "enda": 7074, "初めて": 54197, "▁základné": 204550, "▁ሪፖርት": 202201, "avait": 71504, "▁Keluarga": 113869, "▁species": 114149, "▁ಪೇ": 136047, "すべき": 99889, "▁yürek": 242137, "ntį": 91674, "年纪": 180305, "▁vaginal": 193277, "ачка": 69165, "▁Celsius": 166793, "ҮЗ": 175527, "▁mobilen": 94508, "▁отримав": 125541, "▁ურთიერთობის": 210707, "▁zaključn": 235559, "energi": 123101, "▁Jahren": 8974, "▁अघिल्लो": 191450, "灵活": 134487, "detto": 152803, "разработчик": 160587, "▁كۆك": 193322, "▁лицом": 154770, "▁eredetű": 237217, "▁દીકરા": 243059, "▁২৫": 99923, "რომა": 155970, "▁издател": 198910, "▁հայտնում": 108669, "▁dricka": 219356, "▁листопада": 56749, "驻": 50865, "дръжка": 204723, "▁дуг": 100518, "▁destpêkê": 240126, "▁literario": 165093, "ッド": 84778, "ទ្វីប": 235238, "▁Frakkland": 237248, "▁ର": 15112, "▁උපකාර": 218289, "fejlesztési": 114624, "▁Bratislave": 101496, "▁паказ": 105959, "▁Ar": 1172, "教師": 50810, "你": 994, "▁osnova": 106183, "▁ମାଲକାନଗିରି": 211329, "▁síť": 198900, "▁мекемесі": 193756, "АН": 41096, "rekening": 144263, "▁Жұмыс": 95736, "▁заң": 46546, "▁minerale": 136765, "▁Cuir": 134068, "病": 5940, "ද්ධ": 54421, "▁замест": 170769, "מעלה": 98683, "▁ognuno": 174674, "▁رکيو": 144323, "▁Dumnezeu": 20156, "▁구글": 112446, "▁තැබීම": 193130, "▁برنج": 201945, "锭": 248209, "▁arxasında": 233496, "▁სახელმძღვანელო": 242409, "▁məxsus": 117804, "▁Toàn": 138688, "▁kuchni": 67361, "▁መረራ": 242839, "▁помогнат": 149388, "யிடம்": 221669, "деген": 90054, "▁кир": 77912, "▁дијалог": 129951, "▁mű": 39182, "▁भत्क": 222757, "▁tampa": 78819, "▁doldur": 85619, "투어": 94292, "alem": 75040, "▁लेने": 72268, "▁obuv": 143934, "▁ரொம்ப": 94481, "▁ਭਰ": 57874, "▁waxbarashada": 203467, "▁Кай": 82176, "ಕ್ಸ್": 57885, "アンケート": 203930, "▁svež": 144584, "▁struktūra": 183148, "▁svých": 78841, "honneur": 160945, "एससी": 194667, "▁tècniques": 174592, "▁spray": 91718, "▁की": 471, "▁següents": 144863, "▁πάντοτε": 241635, "อิตาลี": 185383, "▁بچہ": 194619, "▁ժամ": 80351, "изма": 21698, "▁සාමාජිකයන්": 230606, "▁dodatnih": 163727, "放心": 76345, "ิ้ว": 143657, "oči": 45815, "▁Kawasaki": 234224, "చో": 114810, "▁cynlluniau": 232124, "▁عما": 108795, "रचना": 221655, "丧": 160119, "▁בייַ": 182841, "ว์": 101509, "↿": 246698, "▁గణ": 137473, "▁Klicka": 72580, "借金": 130195, "▁sidste": 25531, "▁عصا": 151173, "▁етнички": 233226, "▁dönüş": 80996, "рук": 44875, "сън": 63522, "צלם": 167903, "▁mamlakatimiz": 192085, "▁станет": 69695, "修改": 45123, "▁xD": 92046, "▁Offentlig": 148589, "▁cuadro": 196590, "▁жүрген": 90226, "▁ქუთაისში": 226274, "뱀": 243843, "ლას": 78993, "▁ترجیح": 122723, "▁juego": 42968, "▁trabajar": 53290, "▁համացանց": 226242, "nele": 80323, "▁Interpreta": 159838, "▁ພາບ": 100889, "😲": 245710, "▁gördük": 152756, "脾": 228225, "▁ଅତି": 163315, "▁aspect": 43585, "▁Tafsir": 224040, "▁السيارات": 109870, "▁तुलना": 92803, "ічна": 53541, "▁घडामोडी": 216644, "▁izaziva": 222053, "▁Աղ": 127573, "▁poticaj": 228514, "▁ízlés": 228356, "▁адил": 89959, "▁lor": 7822, "▁belo": 66165, "▁пристап": 75274, "▁løbet": 92549, "▁вр": 28716, "公里": 27362, "▁яд": 90208, "▁අනි": 120873, "lauf": 57985, "▁සංග්": 232487, "▁ключевы": 182050, "▁стварыць": 217164, "▁ਸ਼ਰਾਬ": 213603, "▁Вось": 105224, "▁الوطنية": 50910, "▁explicou": 129088, "▁čez": 65214, "▁tengo": 30412, "▁pietei": 101614, "▁Editor": 69340, "নিৰ্": 222154, "gegeven": 45102, "▁نمایش": 24348, "▁улыба": 200425, "▁տղամարդ": 137491, "▁ਸੈਕਸ": 132413, "▁ଗୁରୁତର": 146150, "istische": 70556, "作者": 26592, "▁бағдар": 191084, "▁strength": 90254, "٩": 76082, "କର": 65614, "▁Außerdem": 62104, "▁एजेंसी": 225360, "▁WA": 4336, "▁javít": 155409, "▁dicas": 63604, "▁intention": 91177, "▁۲۲": 102949, "▁reserv": 74336, "章": 10406, "▁təsərrüfat": 236307, "ᄁ": 246674, "פעילויות": 163961, "▁dejlig": 93624, "▁Baltijas": 124372, "▁столицата": 196640, "▁deunydd": 205728, "▁rhe": 60971, "▁đêm": 38654, "▁ያለበት": 152204, "▁више": 8169, "▁motocicleta": 235278, "▁падтрымку": 214460, "▁nærmer": 209851, "dai": 14093, "▁వుంటుంది": 240044, "▁besøk": 44191, "▁طیارے": 239428, "▁ඇත": 10089, "▁wiwit": 201859, "დოლარ": 225646, "▁minder": 17600, "▁dakwah": 183420, "▁ماجرا": 107719, "▁Овај": 79168, "რბ": 126224, "镜": 84452, "eleganza": 240175, "8°": 114707, "४५": 98182, "▁popoln": 104786, "▁ötürü": 211569, "ਨ੍ਹਾਂ": 238371, "▁मोठे": 182649, "▁biztonság": 128724, "▁nemlig": 32790, "▁schopnosť": 207528, "솜": 243643, "▁помаже": 216754, "▁advice": 67660, "▁ಆರಂಭ": 74225, "xie": 111659, "▁არჩევნები": 230682, "▁Основна": 126620, "するには": 124177, "▁przyjmowan": 203131, "стављен": 117072, "▁말을": 104707, "▁ääntä": 235904, "ioară": 141662, "▁ଯାତ୍ରୀ": 205273, "▁मोरङ": 196597, "▁raga": 74208, "蝨": 247361, "リーグ": 226854, "▁करणे": 52765, "ுபவர்": 183946, "suar": 102017, "فش": 100338, "▁dad": 17901, "▁айт": 75915, "▁perdido": 110746, "▁bringing": 172915, "ታወቁ": 198344, "▁Ryg": 161781, "ىدىغان": 28841, "Information": 205169, "▁رحمان": 168114, "▁그리스도": 171189, "▁možné": 19083, "▁wixii": 98471, "性和": 68667, "▁letih": 48442, "▁orðin": 160099, "▁ਕਰੇਗਾ": 232702, "tjänst": 64570, "▁აღმოჩნდა": 162238, "гун": 76354, "▁Manfaat": 100172, "▁ಮನೆ": 41808, "▁mũi": 64926, "▁اپل": 108263, "▁undeva": 164444, "▁അവര": 111657, "मुखी": 185551, "▁حيوان": 222409, "▁іншага": 204504, "▁독자": 197591, "ц": 1976, "wood": 25876, "▁nyhetsbrev": 80404, "▁potwierdza": 180491, "මය": 31507, "ानी": 99607, "õp": 81609, "▁gæster": 96691, "쑨": 249082, "saari": 141931, "▁ಇಲ್ಲಿನ": 193248, "იდე": 86546, "tatu": 51761, "物語": 143280, "ವಾ": 19438, "▁signat": 176867, "oefening": 175973, "virksomhed": 156864, "なければ": 54668, "▁anatomi": 126687, "integr": 131702, "▁mokesčių": 172621, "czytać": 167417, "▁Β": 7562, "പാട": 110533, "পুরে": 111899, "Del": 58598, "▁አባል": 118588, "▁तत्व": 153190, "▁пројекат": 140515, "▁Cristo": 40117, "よい": 51830, "▁հանգամանք": 188979, "▁langs": 26864, "▁කරල": 87911, "▁žije": 116929, "▁22.00": 177210, "ере": 40980, "háló": 147154, "DM": 31246, "prodaj": 105338, "▁направление": 139369, "▁beteg": 62392, "▁várakozás": 239629, "▁لغت": 193843, "▁статьи": 47190, "▁50.000": 87085, "恋爱": 192911, "▁correcta": 104390, "▁бүрэн": 55561, "▁тренировка": 191440, "▁bármikor": 203141, "▁सेयर": 115425, "▁ary": 11496, "▁KEPADA": 200802, "▁legújabb": 144929, "▁Mund": 61934, "▁يعانون": 237170, "áng": 67392, "▁علاقے": 55369, "্ৰ": 47465, "▁expresar": 181170, "▁ravnatelj": 139612, "▁ඊට": 33483, "▁목적": 99740, "sabiedrība": 149122, "лось": 10041, "▁পালিত": 189699, "▁peau": 87508, "▁hương": 69938, "▁prescrit": 231061, "▁ನೌಕರರ": 225846, "▁ascend": 82800, "mel": 7603, "▁علیرضا": 207977, "空气": 65494, "▁campionat": 158170, "ЧК": 176460, "▁എങ്കിലും": 123181, "ುವುದು": 19650, "▁Abteilung": 211469, "骄傲": 196881, "▁facendo": 50125, "されている": 12892, "▁मनोरञ्जन": 203054, "▁સામાન્ય": 128058, "▁จะ": 19818, "▁кошумча": 145568, "päivää": 156913, "▁spal": 50617, "ಚ್": 46821, "▁yleensä": 58687, "蕨": 245994, "မယ့်": 163550, "▁întreb": 127056, "▁ՀԱՅ": 150615, "▁დაწყება": 231685, "分為": 153394, "▁બનાવે": 224650, "ချ": 24851, "▁borcu": 145425, "▁صدم": 189642, "▁دانست": 52002, "の情報": 128403, "▁cresc": 82895, "월": 3785, "▁газрууд": 215011, "▁сообщества": 228407, "▁এখানে": 119403, "▁തമ്മില": 189240, "ห้าง": 186755, "▁వ్యక్తిగత": 180519, "▁Profil": 58848, "▁војска": 131981, "១៦": 66484, "iadur": 114811, "orul": 59626, "▁cryptocurrency": 185837, "▁Lista": 50085, "Click": 181671, "횡": 243526, "▁Kosong": 153017, "▁վարորդ": 190881, "▁ڀيٽ": 218547, "▁odrasle": 193205, "╅": 247840, "▁comunica": 34060, "▁keuntungan": 62253, "▁приятели": 81554, "▁Mic": 103323, "▁монгол": 57585, "▁aarde": 76267, "смет": 133713, "لاشتۇرۇش": 152671, "特徴": 109399, "خول": 150607, "рын": 17353, "コツ": 181003, "ዷ": 177970, "ставление": 230265, "▁1863": 141745, "yarak": 75602, "tığı": 31048, "▁Ausflug": 225961, "▁ಅಡಿ": 128001, "▁valmis": 26884, "▁ungefähr": 196562, "▁Obligatorisk": 89471, "▁සම": 33262, "éséhez": 108245, "ളാ": 147860, "▁දැනුවත්": 144375, "▁shir": 52631, "▁temporibus": 152665, "てしまって": 209064, "▁ieņēmumu": 242316, "思い": 32186, "▁Све": 31866, "yo": 1410, "▁عمر": 9099, "▁officiële": 231917, "▁vaziyat": 160871, "▁thê": 95641, "▁defende": 123823, "aquesta": 32250, "তন": 86492, "▁Riad": 197511, "▁specie": 55532, "▁uiteindelijk": 113412, "猷": 247934, "▁demokratîk": 191484, "▁mexicana": 201795, "σετε": 60617, "ztat": 91104, "▁Baie": 64108, "exercici": 169952, "▁მგონი": 146760, "дігі": 96858, "▁අනිත්": 112852, "▁dolog": 59272, "устойчив": 137999, "▁ရဲ": 78188, "然而": 21490, "Det": 30347, "อนุรักษ์": 226172, "Дз": 124744, "ključ": 23557, "▁dietro": 116938, "▁санаа": 36783, "am": 302, "▁Kriminal": 157813, "νης": 66179, "ό": 1279, "▁Demokratik": 96873, "▁kautta": 29301, "ചൂ": 175159, "อะ": 50058, "▁ગરમ": 154605, "ാത്മ": 242249, "▁esperientzia": 135586, "▁apresenta": 39355, "Hotel": 68381, "一條": 102633, "like": 5062, "ixi": 38365, "▁וכל": 68353, "▁registrert": 134818, "敌": 103865, "လည်": 94951, "भित्र": 48675, "INEN": 100116, "▁rättigheter": 116458, "▁Huỳnh": 235260, "▁žmogus": 73533, "דת": 33495, "리스": 83838, "焼き": 178048, "કે": 31115, "▁konsep": 47254, "▁2012": 1324, "សាស្រ្ត": 171520, "ుకుంటే": 132348, "ţ": 29418, "хоў": 92743, "▁சர்வதேச": 154881, "重建": 143285, "▁Peygamber": 118721, "▁Социал": 119245, "艰苦": 219127, "தெ": 191171, "此時": 160453, "▁ierobežojumi": 236639, "投資者": 203581, "аси": 109741, "ಗಳೂ": 142126, "千": 7702, "▁sīk": 129627, "▁Тай": 72886, "▁ცენტრალურ": 240547, "▁ಮೊಲೆ": 216739, "▁внутреннего": 210952, "▁αγρότες": 236424, "▁lingvo": 29042, "▁ສໍາລັບ": 16142, "▁сөздөр": 158341, "▁ankehitriny": 178142, "vinnu": 119506, "歐": 35798, "▁മഴ": 53798, "пеш": 142814, "徠": 246156, "क्ता": 154726, "▁contabil": 108784, "▁Srbiji": 133762, "足夠": 157249, "▁enseñanza": 178964, "▁øke": 105242, "▁ਗਿਣਤੀ": 161542, "▁Prezidentinin": 100620, "▁corda": 160959, "gler": 93069, "▁Birthday": 158080, "▁koşulları": 171712, "燎": 245786, "▁територіальни": 204624, "▁Polizei": 71848, "▁الأحداث": 160611, "▁dvou": 52846, "మీ": 25236, "▁маселе": 106708, "▁san": 3725, "⇣": 246568, "▁მეუღლე": 188423, "▁erraz": 95421, "▁sobě": 98248, "▁အစိုးရ": 57580, "ляются": 162939, "▁вырашылі": 231942, "▁εργασίας": 76623, "▁Onsdag": 164017, "▁äußerst": 196486, "▁로그인": 91943, "ঋ": 244482, "LOM": 127347, "▁gạo": 211980, "msgstr": 213622, "ouvisející": 213555, "▁temsil": 89111, "▁ғалым": 200531, "▁מדהים": 190999, "▁ପୁସ୍ତକ": 219642, "ולות": 137394, "▁سیمې": 146492, "▁İç": 70872, "նեց": 177266, "▁първият": 169925, "▁treeni": 102892, "▁ezberdinak": 196242, "感动": 148998, "une": 1811, "▁రోడ్": 203304, "ējas": 81883, "▁obţine": 196532, "▁విద్యార్థి": 217953, "▁हादसे": 214053, "NJA": 108763, "まり": 87650, "▁pomer": 75217, "eniem": 27942, "▁يارى": 215263, "▁pasipriešin": 234853, "醐": 249721, "▁sauce": 139910, "▁axı": 146868, "▁židovsk": 226089, "Telugu": 195844, "▁بشر": 39826, "วา": 17293, "▁Ки": 21354, "▁creampie": 170947, "▁காய": 190436, "▁Pitkä": 168860, "▁Domini": 26977, "▁చేసుకొ": 231445, "+00:00": 238517, "▁රණ": 92152, "träff": 84397, "тра": 6574, "▁vilivyo": 183661, "ट्टा": 85149, "一覧": 130870, "கே": 46653, "▁agita": 108219, "▁tái": 75626, "▁Yeni": 13030, "ศาลา": 206341, "▁гроз": 81966, "kas": 2470, "▁örgüt": 121516, "LAK": 88507, "▁eventuali": 112411, "getés": 183493, "Los": 100604, "гель": 120303, "établissement": 106216, "▁jövőben": 194632, "لمعاينة": 198110, "▁trục": 198427, "▁optimiza": 87235, "▁ठूला": 153587, "hap": 29860, "我們將": 181583, "▁көтөр": 97120, "▁löy": 56177, "gica": 65995, "▁lustig": 172811, "▁бібліотек": 217849, "▁tahmin": 100880, "▁לבנות": 187672, "▁odborné": 180864, "ေသးတယ္": 209744, "▁запошљава": 199132, "sec": 39797, "шум": 140170, "ပွား": 224791, "▁života": 17391, "▁인터뷰": 125154, "▁काहीतरी": 221054, "▁китептер": 231442, "▁അവന്": 74315, "രംഗ": 95109, "▁учествују": 222341, "▁nützlich": 219599, "▁판매": 43220, "女孩": 37991, "▁hiába": 196675, "▁döyüş": 78755, "▁pruugi": 232125, "▁ಸಾಧನೆ": 160506, "报价": 195079, "▁തു": 43645, "响": 55256, "čká": 128428, "μπερ": 170295, "▁ತಿಳಿಸಿ": 156063, "▁হোক": 214942, "bow": 84201, "▁actual": 8561, "agri": 117715, "▁Bem": 97043, "▁ძნელი": 230501, "死刑": 221116, "▁السن": 89738, "ಗೊಂಡ": 50158, "▁자유": 53941, "▁peta": 111534, "▁10-": 12417, "▁πολυ": 42525, "kerfi": 58442, "▁gebrek": 156245, "特": 2657, "▁gości": 58530, "▁oldal": 15463, "▁കാര്യം": 62461, "ോടുള്ള": 185105, "▁təhlükə": 76603, "▁Frau": 28519, "▁საავადმყოფო": 236117, "▁läkemedel": 150094, "▁पत्रिका": 85183, "▁enllà": 149492, "▁Khayre": 233183, "▁흐름": 204791, "▁Rann": 160344, "▁gañador": 172366, "owań": 121768, "istoj": 27821, "ázás": 107011, "▁pensare": 93168, "▁जलविद्युत्": 221117, "▁schreef": 116648, "▁дефект": 153446, "▁কোথাও": 236457, "▁تھر": 169984, "压力": 40700, "▁Central": 15881, "▁Horrela": 166505, "嘎": 243631, "▁ਵਲੋਂ": 32671, "▁Tiranë": 59333, "▁Diyarbakır": 183323, "▁Ubuntu": 116890, "ಸಭೆ": 137271, "▁Reuters": 41325, "▁ਕਰ": 6932, "▁సాధారణ": 176136, "្វ": 99570, "投": 11537, "▁calça": 154799, "▁dlhšie": 205737, "▁ediyoruz": 101586, "▁שונות": 81026, "شرت": 173725, "▁this": 903, "M": 594, "▁нав": 30272, "▁EN": 7338, "▁спас": 31893, "קוט": 174763, "▁kultúra": 159982, "馒": 249754, "是個": 77467, "цкай": 63724, "╮": 245685, "▁åben": 75529, "▁ಎಂ": 42419, "▁visuel": 114102, "▁automatiquement": 201856, "を選ぶ": 126290, "▁filmu": 33563, "▁පිළි": 38207, "ljallangan": 199121, "可以通过": 138843, "žan": 39086, "▁နဲ့": 68166, "occupation": 167618, "▁priložnost": 89365, "▁၄": 39117, "▁Lut": 70819, "": 247582, "▁ampliar": 89446, "យោ": 161613, "▁сам": 3151, "fyr": 77098, "標籤": 123161, "▁Geir": 158720, "▁proprii": 108445, "▁ξεκίνησε": 155490, "▁იქნება": 28595, "▁folyamán": 222316, "NX": 166989, "จัง": 98900, "عطاء": 172766, "▁chvíľ": 226121, "طر": 25542, "▁fyw": 168481, "▁ሲያ": 43570, "▁நிறை": 166971, "▁ଗୁରୁତ୍ୱ": 237588, "ваўся": 111221, "▁కలెక్షన్": 212174, "▁Kom": 4440, "▁padesát": 236599, "ದ್ಧ": 91883, "మంత్రి": 218972, "外國": 133107, "▁kopiere": 177855, "▁темір": 200582, "▁দেখা": 46087, "▁fisi": 58224, "▁ritmo": 55185, "ਤਮ": 113584, "感恩": 108876, "深度": 68414, "▁کردید": 169477, "▁Граф": 163791, "vård": 65926, "▁Transilvania": 202606, "▁بڑی": 30876, "▁બજેટ": 227522, "ພົວພັນ": 150991, "▁corn": 126041, "▁įmonių": 136940, "▁ሰነድ": 158111, "▁nhấn": 113366, "ącego": 161839, "▁passed": 115081, "▁ಜೊತೆಗೆ": 89492, "ିର": 141631, "▁قال": 6625, "▁سې": 43129, "▁ơn": 43209, "▁வந்தது": 124102, "▁neu": 3717, "▁operator": 39933, "▁objaw": 107351, "щее": 101253, "யாக": 11586, "envisage": 191195, "గురు": 115174, "▁আপডেট": 122489, "▁kialakul": 105105, "ფაქტ": 130506, "▁سۈرەت": 142756, "ซา": 24574, "ეტის": 112456, "▁stranicu": 182395, "▁сёння": 67075, "Atom": 12078, "▁ఉండటం": 172676, "▁195": 91809, "สี": 13402, "▁árbol": 172394, "באנגלית": 158990, "▁БДУ": 196648, "وصي": 114125, "獎": 18828, "▁Ministerstvo": 173942, "▁zientifiko": 242681, "တွေ့ဆုံ": 169824, "▁въпроса": 112000, "ប្រធានាធិបតី": 124123, "näyttö": 145595, "▁generation": 58093, "מקור": 99895, "поч": 57870, "▁মনোনয়ন": 107876, "เคลื่อน": 157071, "Não": 140304, "ทิ": 40426, "सिक": 91533, "▁управување": 163847, "▁విని": 170331, "▁months": 21775, "▁auguri": 195923, "▁жай": 26741, "bā": 63182, "ريو": 125653, "зира": 80738, "▁Сири": 113899, "▁Московськ": 243176, "▁landscape": 212790, "אַן": 47351, "▁дапамагчы": 203892, "▁võtta": 55502, "▁సైతం": 182230, "▁tekemistä": 200944, "▁вертикальн": 234399, "őbb": 135529, "▁अगदी": 84967, "▁Черкаськ": 201498, "▁ধর্ষণ": 159794, "▁смер": 132545, "▁vuestro": 177044, "mjer": 32066, "յ": 15427, "▁készülék": 104875, "Ah": 56787, "▁allerdings": 37401, "▁காதல": 178465, "▁conducător": 237018, "▁відправ": 101842, "▁penulis": 71749, "bånd": 63466, "χρυσ": 175189, "▁heerlijke": 125655, "▁elbise": 179395, "▁satisfac": 64561, "▁изврши": 99512, "▁том": 2660, "Քաղաքացի": 193261, "▁മാറ": 83342, "ကျမ်း": 182717, "teurs": 16034, "▁lacus": 23089, "▁ይመስላል": 173015, "គោ": 150064, "▁steg": 43666, "עם": 46598, "▁Zobrazit": 147726, "▁komunit": 91608, "▁ବିରୋଧ": 204631, "▁ભાષા": 94813, "泰国": 117450, "退職": 215507, "▁erzählt": 125089, "供应链": 188354, "하였습니다": 149534, "▁rozvod": 193768, "ماسلىق": 164934, "حاق": 149908, "▁Motorola": 167961, "اعتدال": 225931, "▁արտա": 96533, "ເອກ": 177968, "höfundur": 236973, "பார்": 176741, "奶油": 205765, "คราว": 183880, "▁пропуск": 151852, "ဖြစ်လာ": 223000, "▁פנימי": 185664, "▁cuir": 109651, "▁ପ୍ରବେଶ": 200836, "对我们": 140633, "ကြ": 16449, "▁Чита": 146391, "▁zahtjeva": 151617, "▁ଇଚ୍ଛା": 242240, "▁հարստ": 232033, "▁שתי": 51891, "กล่อง": 66152, "плы": 55411, "▁generale": 40861, "▁περισσότερες": 105650, "ลงไป": 108040, "▁שלה": 43869, "▁تعيش": 184296, "rodo": 58579, "▁llei": 69373, "▁slabi": 102994, "挖": 102595, "tatás": 52698, "▁ota": 42195, "ებულ": 20748, "▁מומחה": 199611, "رين": 37422, "තී": 43670, "▁науката": 176786, "▁көрсөтүү": 117387, "घा": 57260, "▁تبدأ": 168308, "▁avy": 33507, "▁छत्तीसगढ़": 141145, "tissima": 126966, "▁prossimi": 150321, "▁tende": 72201, "主要是": 50817, "▁hyn": 11257, "▁klo": 7897, "▁(1994)": 186780, "▁مريض": 190005, "▁linje": 64262, "▁влияние": 58893, "ትግርኛ": 233181, "▁artikelen": 141349, "▁placa": 55654, "▁Halil": 193024, "▁תפקיד": 110070, "рада": 58000, "▁ঘুম": 166101, "▁movies": 72304, "▁keçmiş": 83325, "▁udvide": 143598, "買って": 181143, "τυ": 73583, "▁Punjabi": 100022, "▁ortiq": 106811, "▁Bernardo": 163764, "▁srpsko": 229311, "앵": 213616, "▁ара": 28976, "ђено": 156720, "세": 5770, "ഞ": 65746, "▁तुझ्या": 136143, "▁Bóg": 165253, "▁somewhat": 208806, "▁revenir": 136517, "▁Embora": 183066, "▁געש": 74806, "棍": 203422, "нчев": 71767, "کری": 60767, "▁konata": 110334, "▁coming": 38162, "▁účtu": 172088, "▁υπουργείου": 202715, "▁gereed": 161001, "ロシア": 213965, "▁feminist": 105595, "▁gennym": 182722, "ಯ": 1508, "▁کمشنر": 184197, "▁fatal": 85235, "▁প্রাণ": 133065, "▁skirtas": 146503, "▁последњи": 147609, "греб": 184387, "▁Taldea": 149012, "洗": 11378, "▁15.000": 123220, "▁کارگاه": 154306, "▁տուն": 107238, "▁eenvoudig": 42901, "套餐": 186090, "нување": 53905, "▁innovant": 224236, "▁орус": 108740, "යම්": 163168, "▁મા": 12368, "▁Gesamt": 82163, "▁visst": 77259, "▁candidato": 60557, "四": 4121, "▁HCM": 111566, "夫妻": 63104, "ที่มีความ": 99591, "▁compete": 98438, "ធ្លាប់": 130836, "työskentely": 175749, "▁ಪ್ರತಿಕ್ರಿಯಿಸ": 240350, "▁cemerlang": 199124, "বেন": 65047, "▁яйце": 214242, "bær": 38575, "ေတြက": 77802, "▁հրաման": 190631, "▁معركة": 222267, "▁daşıyır": 162579, "▁analizar": 129848, "▁ਸੁਰੱਖਿਆ": 146440, "薹": 248653, "▁ह": 9214, "▁የነበሩት": 159989, "▁Massa": 96945, "▁սպասում": 176045, "mām": 93347, "衰退": 220877, "ismi": 52104, "▁широкий": 177078, "嵘": 246284, "▁Пер": 21909, "▁របៀប": 161626, "▁המושלם": 213663, "▁بچوں": 31041, "SV": 43486, "zen": 3121, "▁Μου": 124016, "▁erfolgreich": 43556, "▁Perso": 108238, "▁persatuan": 213178, "▁príležitosť": 225315, "▁eerste": 8155, "ємося": 163054, "▁láthat": 153478, "▁ക്രിക്കറ്റ്": 163931, "ঢ": 147965, "▁muu": 14774, "kwam": 168636, "▁Ваше": 47601, "▁xisaab": 232790, "▁პროგრამის": 160168, "нар": 21278, "▁Camping": 82093, "ใน": 1201, "▁ಸ್ಕ": 137333, "spill": 30924, "▁الرسمي": 121305, "▁цього": 9950, "▁ஆதரவ": 204690, "▁школе": 26667, "▁કંપની": 95915, "▁víc": 44362, "アドバイス": 140025, "▁PIXNET": 28919, "▁የተደረገ": 140080, "▁ფილმი": 118195, "▁થયું": 71847, "▁интуи": 193546, "▁बाहिर": 70363, "क्ष": 14294, "▁perfect": 15787, "енд": 65385, "▁महीने": 80782, "▁Koca": 161281, "功效": 155367, "▁가구": 198393, "惩罚": 217859, "▁потенційн": 206232, "ไต": 89344, "▁штампа": 188326, "alueilla": 220815, "▁физически": 79776, "12)": 55102, "jumā": 67340, "▁امتحانات": 199029, "▁шаруашылық": 137691, "صان": 179615, "▁ľahko": 117962, "▁انیمیشن": 211317, "▁ចាប់": 67290, "▁hissediyor": 234040, "正しく": 222204, "წამ": 124790, "▁nettcasino": 200447, "▁All": 3164, "造型": 52405, "🔷": 249214, "▁marrëdhënie": 92360, "▁ity": 25586, "▁другото": 164485, "▁Phá": 160299, "gros": 87436, "▁Velkommen": 56237, "还在": 58013, "跻": 244993, "රය": 63408, "▁баз": 45759, "พรหม": 201182, "▁محسوب": 106407, "▁Jussi": 181470, "▁lesbi": 123607, "▁تۇتۇش": 228021, "▁varukorg": 237630, "▁आल्या": 129346, "▁опсе": 194225, "を活用し": 228987, "▁Randers": 174090, "▁одиниць": 242703, "▁stratégique": 215776, "星座": 177692, "متنا": 183280, "▁گلی": 167092, "▁aanu": 95324, "▁дугуй": 224627, "ຄວບຄຸມ": 210985, "toko": 94916, "▁ничем": 204489, "ከ": 5679, "▁Thanksgiving": 229075, "港澳": 174635, "▁ekskl": 173686, "▁seguir": 11100, "▁премиерот": 186021, "▁መሆን": 68951, "▁инфрақұрылым": 236434, "▁브랜드": 63233, "▁£": 11762, "▁morreu": 167175, "▁1869": 184007, "▁ਗੈਰ": 237776, "▁ਕੁੱਝ": 176571, "ifs": 70253, "യാണ": 114797, "▁sviđa": 218120, "ဆက်": 48115, "object": 187694, "▁ಪರಿಶೀಲಿಸ": 218409, "▁Freiburg": 183124, "ถึงบ้าน": 204018, "▁πατέρας": 202757, "▁व्यवसायी": 86438, "▁foly": 42371, "▁drzwi": 89769, "ლზე": 152840, "KOR": 106818, "▁lielāko": 191646, "्यते": 68624, "▁inriktning": 222329, "▁Брюс": 207022, "palvelujen": 158660, "LIN": 46610, "▁ني": 35956, "คลอด": 175790, "▁ақпарат": 36423, "ચ્ચ": 206002, "▁Študent": 209139, "ذاكرة": 166809, "מכונות": 231790, "▁battaglia": 208263, "▁जाँदा": 203143, "▁ಒಳ್ಳೆಯ": 107027, "ിക്കുകയും": 104839, "▁హోటల్": 234201, "▁messages": 89914, "▁მაგარი": 165466, "只需要": 125863, "넷": 84592, "▁талаптар": 63113, "教導": 210352, "▁uvoz": 171020, "násob": 116571, "glück": 210792, "ală": 30532, "কল্যাণ": 214492, "体育": 28788, "▁nhị": 154178, "▁الك": 14924, "▁основные": 111739, "作风": 184312, "▁alba": 45491, "▁розуміти": 232073, "▁Tarptautini": 227541, "▁пружи": 162435, "ប": 5350, "ベー": 219999, "wijze": 95969, "▁եվրոպական": 187523, "▁alkalmazás": 56720, "▁مباراة": 77496, "▁Strokovn": 239111, "▁ഉടന്": 174327, "▁excepţi": 231033, "ရော": 118644, "▁blommor": 160550, "答应": 176625, "▁hommikul": 181504, "뎌": 245430, "▁nudi": 39488, "▁تمامی": 33521, "▁următoarele": 147435, "▁brezhoneg": 136397, "▁m": 347, "▁sesuai": 13446, "▁CASA": 170970, "▁արհեստ": 235307, "▁тэ": 21795, "▁Combat": 202945, "鉢": 245013, "▁өзү": 43964, "▁Gest": 80646, "▁drugim": 22235, "착": 49731, "广场": 103571, "ทางร้าน": 210663, "▁இதற்கு": 130089, "ALLAH": 212116, "▁materiallar": 135499, "ался": 89312, "▁ступенів": 197888, "▁yayi": 127483, "▁scríbhneoir": 203460, "▁flwyddyn": 100141, "调研": 119607, "GER": 56599, "▁bituka": 137016, "czą": 22862, "▁zjawisk": 172628, "▁хуваалц": 230813, "՞": 30645, "naam": 53239, "بانی": 90401, "జర్": 56753, "▁Regard": 180358, "▁urdu": 85537, "নায়": 78676, "ierul": 145151, "වැනි": 141959, "밈": 249397, "▁планы": 137338, "▁Kabhi": 195902, "▁بېرى": 120247, "▁kæranda": 224575, "▁сацыяльна": 118358, "▁کتنے": 209288, "ທີ່ສຸດ": 94899, "ото": 7474, "景点": 176509, "▁Negativ": 221717, "▁прете": 75552, "▁davom": 90070, "▁პროცეს": 124094, "▁апартамент": 85102, "▁naha": 75215, "ಕರಣ": 154326, "▁учесници": 120453, "▁մասով": 189231, "▁અમેરિકન": 243058, "▁ape": 68634, "▁εργασ": 127829, "🖋": 248112, "aad": 18523, "▁Čo": 28000, "▁главной": 200171, "▁اراضی": 231615, "▁kehtesta": 136488, "智能": 28343, "ence": 6620, "▁contemporane": 118672, "enden": 26316, "▁मिथ": 205527, "rør": 84529, "▁jde": 54267, "ЦИЈА": 107936, "▁olvas": 37059, "上帝": 92783, "ပတ်": 76313, "faq": 30127, "ձոր": 178865, "▁resenha": 191924, "sababisha": 163875, "▁පූර්ව": 239453, "▁lucrare": 181084, "▁explicó": 157846, "▁كۆرۈ": 121771, "▁dest": 37204, "▁izdavača": 242317, "▁الاستاذ": 236218, "▁wisi": 103841, "ەتلىك": 129189, "▁patrimoni": 104659, "▁pembuangan": 239268, "▁ciąży": 155854, "▁دمشق": 109661, "تناقض": 188610, "▁گردد": 38803, "ㄓ": 248837, "პონ": 164807, "spreek": 133216, "▁baptiza": 238022, "owałem": 138259, "lamaq": 171357, "▁mano": 7414, "ณ์": 190424, "▁primordial": 177765, "▁izvērsta": 198633, "رار": 84984, "▁Konser": 100229, "▁redistribu": 242564, "ਪੁਰ": 40221, "ರಾಗಿ": 77798, "▁Um": 2793, "дом": 29471, "กรุงเทพ": 112119, "罔": 246193, "լանդի": 232902, "ीको": 45318, "viez": 105763, "▁lumière": 103500, "▁مالڪ": 161435, "▁внутри": 79252, "🔰": 246766, "iseer": 79635, "▁једини": 138186, "▁pengendalian": 238900, "▁مواقع": 52689, "▁qartë": 97940, "▁എത്ര": 48980, "▁köyü": 203235, "▁perhe": 53947, "қпа": 146990, "կառ": 161750, "▁touch": 23996, "狰": 249405, "емо": 31077, "▁វិច្ឆិកា": 208735, "▁सोध": 138168, "▁šajā": 32961, "سكو": 141092, "βη": 117929, "▁다루": 215087, "▁brezplačne": 233773, "ឡូ": 114195, "work": 18244, "ското": 17449, "▁Палі": 198526, "ித்த": 79379, "▁Frauen": 31801, "lliset": 50410, "콴": 248096, "▁ਉਪ": 114076, "▁antall": 96823, "▁dnevno": 79719, "▁41": 6478, "真空": 206427, "ဆုံ": 154670, "▁Abubakar": 217966, "Наша": 179171, "раховує": 194196, "tului": 25871, "▁qərar": 37591, "▁Дүйнөлүк": 174619, "▁भाषण": 126297, "जागृत": 216778, "sena": 73169, "શ": 8499, "▁ورتو": 81286, "▁effort": 71834, "▁kung": 2125, "▁Sarri": 153557, "▁poidan": 148320, "สิว": 88349, "▁ມື": 113279, "▁саясий": 119870, "▁Registroval": 93218, "▁Левски": 129847, "▁خادىم": 218009, "▁ظالم": 136430, "▁Tā": 24746, "▁embætti": 227851, "▁गरि": 29293, "marknad": 64198, "▁پلار": 115938, "▁өтініш": 136411, "▁учреждений": 136713, "arbejde": 68211, "▁holky": 121174, "▁κερδ": 107325, "ประกันภัย": 235936, "▁даволі": 162704, "▁xoojin": 232132, "▁comfort": 47506, "▁frecuente": 133993, "ভ": 19418, "▁ପ୍ରସ୍ତୁତି": 173999, "▁સ્વ": 42516, "▁ಚಿತ್ರ": 16738, "ご用意": 222194, "▁ئائىلى": 168216, "▁био": 8257, "▁mängi": 44663, "▁медичних": 212371, "ფლ": 64103, "▁yog": 117451, "▁તેથી": 122100, "▁Председник": 107130, "▁nagyon": 9429, "▁principal": 7893, "वां": 117788, "▁culpa": 28488, "mienia": 83065, "の人": 81861, "▁պատկեր": 67168, "▁Tru": 19419, "▁Cameron": 100862, "ηση": 25954, "افی": 91537, "▁безопасн": 106169, "▁గ": 11464, "▁inici": 104294, "Ла": 86671, "▁годзе": 19548, "▁teljesít": 142504, "ကျောက်": 162870, "vic": 21605, "▁bril": 39192, "▁престъпления": 242357, "▁Integer": 44401, "伏": 97860, "нууд": 150386, "▁parlament": 22048, "▁risal": 123003, "άρει": 186814, "▁dítě": 52815, "iecību": 97997, "▁Araştırma": 99132, "管理和": 146204, "▁Tegelikult": 217048, "▁শতাংশ": 167140, "شنبه": 74672, "▁dóigh": 227271, "辻": 245936, "▁büdcəsi": 151491, "ทัย": 206848, "Հայաստան": 157694, "▁प्रहरीको": 165543, "▁cadascun": 200888, "▁Robin": 65810, "▁පුද්ගලයින්": 231693, "▁лига": 71797, "▁проектов": 109596, "▁Պարզ": 199288, "贔": 249168, "▁nekazaritza": 232368, "▁জেল": 232535, "疑": 27597, "▁إلى": 1335, "关于": 12022, "▁gulv": 142853, "▁Podijeli": 187148, "▁salud": 27506, "ዓ": 25273, "រោងចក្រ": 185066, "▁چیت": 144256, "▁певн": 68271, "▁stoppen": 165929, "▁doktrin": 165913, "▁svarīgāk": 191900, "▁Posta": 59365, "▁тады": 85987, "▁имунитет": 218047, "近い": 109255, "kora": 77662, "ట్స్": 56552, "▁especializado": 112714, "▁અંતિમ": 234646, "▁മുറി": 78310, "မြန်": 183558, "▁würden": 69551, "▁traxectoria": 220930, "▁możliwe": 85698, "▁ברחוב": 158872, "▁ପ୍ରାୟ": 113963, "tığını": 112213, "▁romanzo": 171814, "위": 5821, "区块链": 110659, "แพร่": 171643, "жев": 115075, "adevar": 166362, "▁Miklós": 167894, "▁ਸੁਖ": 121062, "อุบลราชธานี": 185822, "▁برآمد": 138876, "▁අභි": 112958, "ія": 3660, "zīmē": 76095, "▁տեղեկացնում": 183805, "▁கணினி": 218381, "▁provide": 22691, "cp": 121422, "கல்": 174034, "▁инвестиционны": 220400, "▁ድረ": 158613, "▁logro": 160644, "▁beslis": 92320, "▁qo": 2453, "▁Warszawa": 83282, "▁immobili": 79853, "цыйна": 63443, "▁194": 131192, "連線": 193723, "სხვა": 137813, "▁бере": 27893, "▁migration": 212416, "▁চাল": 125980, "▁ცოდნა": 192272, "▁مرکب": 237311, "▁مصدوم": 215860, "▁زيادة": 84357, "▁тренировки": 186299, "▁благо": 25857, "νών": 78184, "▁gerîla": 237718, "▁λοιπ": 200714, "▁Vyhľadávanie": 241251, "▁사진을": 145685, "▁വിഭാഗം": 195842, "务实": 211220, "големи": 175627, "palveluita": 186558, "▁yhdiste": 192622, "တောင်": 69414, "rad": 5589, "▁concorrer": 241171, "▁Storbritannia": 219585, "▁কোথায়": 230774, "ლენ": 98874, "▁Хрыста": 235295, "▁отказва": 204260, "▁منزل": 31070, "tkaz": 64469, "防火": 204047, "▁Inici": 74572, "▁Após": 71001, "זכר": 50647, "遭受": 149071, "▁greiða": 180240, "▁Geç": 95382, "▁ԵԱՀԿ": 183754, "▁gelombang": 189765, "▁वाचन": 196416, "أبعاد": 225134, "▁Sandefjord": 237848, "▁orchestr": 178992, "▁होगी": 33502, "▁килограми": 179408, "വം": 130220, "▁confere": 177523, "▁свого": 45308, "▁помощи": 40687, "▁լայն": 162254, "▁vědět": 167517, "▁ବାଣିଜ୍ୟ": 238609, "▁Свето": 89410, "mby": 96829, "艶": 245958, "▁nostrum": 82689, "▁الاتجاه": 219200, "検索": 46413, "ρισμα": 223821, "ΑΛ": 79603, "▁Schrijf": 235444, "kela": 51718, "tyczny": 100526, "ांचे": 32224, "▁шкідлив": 185419, "霰": 248450, "вшиеся": 159976, "▁Տեր": 140791, "വൻ": 135363, "▁ایستگاه": 195704, "▁ઑફ": 239486, "▁1993.": 106540, "▁Siwon": 188195, "▁breast": 57262, "▁Carnaval": 189332, "▁எங்கே": 177828, "▁februarie": 65499, "▁بتاريخ": 130879, "ប្រពន្ធ": 148937, "▁मनोहर": 235941, "▁вказує": 240165, "▁pence": 80128, "парушэнн": 153970, "▁पुढे": 79536, "▁وم": 4587, "▁Frankrig": 192380, "▁Биздин": 171970, "Ap": 47677, "▁Nullam": 37074, "სწრო": 234433, "集体": 91910, "цима": 24341, "ശ്ര": 72167, "▁monda": 149550, "▁dereitos": 68990, "▁Sitten": 97791, "▁friend": 34391, "▁mchang": 146904, "▁Fórmula": 235655, "▁հարկ": 55445, "▁రాజ": 45715, "▁Фил": 80270, "▁ਦਿੱਤੀ": 51983, "vem": 66262, "▁specielt": 157543, "▁సొ": 181639, "▁speranza": 181450, "ციის": 65754, "▁bumi": 37038, "▁XoZilla": 229483, "కల్": 60468, "▁երիտասարդական": 220262, "ลาว": 165134, "浮": 31170, "کے": 23859, "міт": 47752, "ĝaj": 176835, "াব": 96292, "▁ફોટા": 234602, "▁Er": 1004, "▁ತೆರಳ": 187535, "CSS": 180216, "ፌስቡክ": 206073, "楓": 217875, "▁мэдээллийг": 110870, "▁Bax": 86378, "▁Poble": 166982, "ИМ": 40460, "▁Ποι": 112734, "▁ਦੂਜੇ": 164966, "טיס": 92178, "-2016": 39112, "Not": 122116, "یات": 53108, "▁Guerre": 173517, "▁тромбо": 236596, "偲": 249515, "▁скуп": 64088, "骰": 244736, "เวียดนาม": 202151, "入学": 128867, "▁Mathematik": 237648, "▁وہی": 113515, "▁უნივერსიტეტში": 236163, "▁впечатление": 114912, "doğan": 166647, "▁adxudica": 221788, "▁agentliyi": 211612, "▁dudas": 120389, "▁sull": 25658, "schreib": 132230, "ковий": 62290, "lip": 21392, "Associate": 228214, "▁siège": 162381, "สิน": 120063, "AL": 7842, "▁vážně": 215251, "istic": 48242, "וואָ": 111230, "▁recién": 198379, "▁వ్యవసాయ": 179727, "▁വെബ്": 120994, "čkim": 108569, "▁juoda": 156529, "▁har": 182, "▁Zar": 65821, "▁kelompok": 43709, "▁részesül": 219858, "多年的": 99527, "ಲೆ": 11791, "ελε": 80619, "kæmpe": 208183, "tegia": 69468, "▁dzīvi": 113845, "▁mindre": 9427, "緝": 244225, "峇": 244253, "▁म्याग्दी": 209589, "ៀង": 84606, "vulling": 133088, "▁generasjon": 220371, "ርቶ": 153188, "غرق": 102808, "▁bröd": 128335, "hend": 36019, "▁კერძო": 187486, "▁રાજકારણ": 240686, "▁knjižnica": 211564, "┥": 247993, "oitetaan": 161788, "ოლოგია": 164427, "▁verb": 42792, "▁turinį": 201048, "▁клубу": 154078, "▁ndërkombëtare": 119333, "▁požel": 202399, "効果がある": 208606, "▁อยู่ห่าง": 176394, "▁stanna": 110539, "▁zunanji": 122759, "會員": 47056, "▁ሃይማኖ": 226054, "דער": 35189, "▁الفوز": 167269, "▁şəklində": 231931, "ต่างชาติ": 207178, "▁uczucie": 223155, "رد": 16239, "▁هکله": 125064, "หลังจาก": 82771, "▁ଫେ": 94614, "▁guraso": 172022, "▁අස්": 118320, "▁!!!": 7625, "ബി": 15893, "EF": 28482, "▁Oklahoma": 238215, "▁කොටස": 75363, "▁olemassa": 87605, "▁స్వామి": 127646, "检查": 28072, "▁osigura": 70978, "▁බැහැ": 77113, "▁доллар": 37654, "မယ်လို့": 221950, "▁prostredia": 162245, "▁assoluta": 238494, "▁Coleg": 118849, "▁Benedict": 125829, "▁własnej": 162324, "tona": 55462, "▁ужива": 76950, "▁qualquer": 16473, "bifreið": 230982, "▁prevelik": 220724, "IMU": 87639, "▁вівторок": 240002, "▁তাঁর": 112963, "▁संवाददाता": 228375, "明显的": 153091, "▁lepšie": 60218, "ušās": 189610, "▁Mhuir": 236644, "játok": 133202, "▁வீட்டில்": 152594, "▁նշանակ": 80924, "▁जल": 30718, "▁raspunde": 169349, "ദ്യ": 87111, "ادا": 128493, "מקצוע": 146030, "▁Administra": 34158, "ப்பட்ட": 18599, "▁urteetan": 198819, "▁במועד": 217308, "itātē": 158587, "▁agertzen": 146750, "▁first": 5117, "▁бяло": 202114, "bó": 42995, "▁dibêje": 80668, "▁samarbete": 85234, "▁выглядеть": 218847, "行": 2003, "বদ্ধ": 202545, "▁mäleta": 198798, "▁suurempi": 174732, "irea": 20884, "▁sprząta": 221860, "▁ቅዳሜ": 216661, "▁жинағы": 200960, "▁місцях": 179899, "姓": 69797, "რობის": 177076, "撑": 200332, "뼈": 240708, "▁solgt": 106686, "▁RA": 19400, "▁містить": 85722, "▁període": 142616, "ימו": 85935, "▁caratteristica": 229602, "слыша": 155630, "▁einzu": 78799, "▁dostali": 110545, "▁গোলা": 215181, "闍": 248900, "ຄຸນນະພາບ": 226173, "▁novads": 189055, "▁знаят": 152396, "▁Salomon": 163317, "улган": 54623, "VL": 92414, "▁произошло": 89476, "的主要": 45049, "▁Bangla": 25211, "▁Natural": 24955, "▁पुगेका": 148661, "▁contemporánea": 223079, "▁saor": 49862, "▁ଖେଳାଳି": 214481, "▁kívül": 47532, "mektedir": 22918, "▁Tỉnh": 182286, "▁остаются": 210224, "▁संसद्": 205505, "ជម្លោះ": 240914, "▁linn": 24300, "▁:)))": 83999, "คณะกรรมการ": 85842, "▁нашия": 75561, "▁ofera": 72927, "仕事に": 184473, "▁Pal": 12530, "▁개선": 82415, "ஸ்ட்": 70918, "ktion": 33622, "anayo": 113290, "▁digital": 6338, "▁dideli": 90140, "▁ආරංචි": 170815, "▁ছায়াছবি": 228709, "一看": 91857, "χειρο": 160703, "▁بسته": 41146, "饋": 244507, "▁Fá": 48568, "▁deyil": 11590, "서는": 95542, "ämme": 78032, "▁шеш": 111804, "▁ehitus": 77235, "▁אויטאס": 240673, "▁kurām": 155366, "ห่วง": 145832, "▁კუნძულ": 201340, "əti": 53507, "▁појм": 235180, "▁схвати": 133777, "เข้ามา": 30393, "▁załatwi": 229186, "▁garden": 80583, "kih": 28062, "▁viverra": 42440, "▁זמן": 25890, "पु": 31422, "▁रह": 27104, "▁ਕੈਪਟਨ": 72143, "чид": 59812, "▁lez": 85141, "▁разполага": 82026, "еве": 47248, "教育": 3372, "плати": 116171, "アナ": 162788, "▁sannsynlig": 138326, "▁резултат": 27657, "▁Baltimore": 230092, "▁ከአንድ": 190221, "▁kellel": 139073, "▁мін": 74818, "▁القادمة": 140114, "apakah": 180546, "▁ಅವರನ್ನು": 68217, "▁осв": 134110, "▁מזרח": 117753, "ização": 18836, "حف": 73953, "▁Nature": 58806, "▁miest": 25686, "谘": 246544, "▁енергії": 154913, "▁በራሱ": 188098, "▁τμήμα": 91488, "▁coñece": 114840, "ological": 109622, "▁корак": 160086, "👥": 247744, "頓": 58882, "နိုင်": 13412, "рв": 69654, "▁Feliratkozás": 241242, "▁Телеканал": 236797, "▁அரு": 88115, "▁βέβαια": 107504, "▁पहाड़": 224640, "بح": 86302, "▁그대로": 104579, "вэр": 79170, "▁април": 39756, "tohen": 125587, "ሏል": 154055, "▁klik": 8600, "▁baie": 7348, "muse": 48824, "ētā": 38890, "▁වර්ග": 78526, "ぶ": 28520, "▁मानिसहरु": 216963, "FIC": 122112, "телни": 22609, "▁акыл": 149262, "▁gelten": 69227, "ໃຫ້ການ": 167468, "▁straipsnis": 200813, "▁persoalan": 108832, "▁endringer": 116756, "▁ଦଳର": 178703, "ಹೋ": 210419, "ดร": 51623, "▁पीड़ित": 198257, "▁데뷔": 210555, "▁Anne": 14245, "김해": 186103, "▁Pres": 20703, "撇": 231506, "follow": 94015, "498": 165611, "ein": 12651, "▁hör": 30257, "▁набавки": 235300, "▁Universitetet": 145434, "ശബ്ദ": 122047, "▁ئاس": 106611, "▁Efect": 177652, "포": 12284, "▁kuruluş": 99258, "▁individual": 11651, "▁tena": 23582, "▁सम्पन्न": 30402, "▁kulu": 22291, "▁یخچال": 235319, "mainīt": 106024, "▁colla": 65780, "▁merveille": 168228, "▁Hóa": 119983, "▁वैशाख": 110252, "Karjala": 183227, "▁عموما": 166299, "〝": 243371, "不断": 12114, "κεφ": 211590, "▁tugeva": 117394, "▁Découvrez": 169271, "Çık": 168805, "高峰": 111960, "▁solum": 88347, "መጥ": 73845, "▁kohteen": 194099, "იზაციის": 161482, "▁ਕੱਪ": 170089, "lay": 5259, "▁zpět": 111560, "▁gelişme": 125169, "▁olid": 35420, "▁څانګه": 233095, "▁na": 24, "▁adresi": 73038, "▁замовлення": 132138, "▁ռե": 119285, "累计": 123678, "ฟี": 130464, "леб": 106625, "igheter": 74048, "▁Дер": 140756, "▁πόσο": 98419, "▁телефона": 83827, "▁Všetko": 122260, "▁Vac": 58698, "քաղաքականություն": 143904, "古代": 115621, "եյ": 35322, "▁cikk": 46095, "▁ytterligere": 169283, "▁fəaliyyətinə": 207543, "kerne": 72083, "struktūr": 85670, "▁отказа": 67589, "▁الملل": 117066, "▁አቅጣጫ": 175386, "柴油": 200789, "াহ": 62526, "▁ലോക": 35241, "▁webu": 56499, "▁використанням": 175677, "▁চেয়ারম্যান": 118495, "局部": 184399, "▁cuanto": 51868, "▁পথে": 167940, "ຮຽນ": 111454, "izovaný": 171791, "▁учат": 170317, "▁جن": 5867, "ค": 2543, "LIE": 165539, "▁салыстырғанда": 239029, "界面": 152761, "dioxid": 143961, "▁vacuum": 241433, "▁dwóch": 40768, "▁және": 1501, "▁ട്ടി": 68328, "▁maxkamad": 225465, "ড়ে": 101446, "원": 3575, "▁Deck": 162163, "▁assure": 92784, "▁glas": 9701, "ОЈ": 118464, "ട്ടിയ": 137455, "▁मई": 144183, "▁Lí": 27274, "मिन": 98878, "▁رقیب": 231329, "▁março": 94559, "▁aug": 9620, "▁Dó": 121606, "▁تەلەپ": 182235, "▁خەۋەرلەر": 216457, "يزه": 190374, "дзю": 141592, "▁වර්ෂ": 135957, "▁seinä": 156848, "▁Român": 146947, "บิ๊ก": 172662, "▁دسمبر": 131375, "▁contratado": 199398, "▁Concellería": 242287, "▁сэтг": 203772, "▁possi": 58387, "祂": 135293, "▁Sü": 39121, "рос": 19477, "▁съдържа": 73343, "▁įgyt": 239505, "浩": 68934, "šený": 171720, "▁dere": 31215, "▁neuf": 178065, "▁giao": 13407, "▁børne": 78155, "▁søndag": 50825, "▁смотрел": 110370, "▁വകുപ്പ്": 166798, "овых": 17524, "裟": 247271, "ტულ": 188664, "▁ilmais": 60043, "modeller": 163061, "的工作": 19558, "ভূত": 212995, "▁Apoi": 86883, "▁شك": 72453, "傳承": 200121, "媛": 202568, "ури": 41221, "گھ": 115973, "▁бульб": 234029, "堶": 249048, "▁obilježen": 240471, "▁Právn": 214145, "▁રાષ્ટ્રીય": 214920, "▁rigtig": 26703, "▁રાશિ": 166099, "ニー": 110618, "▁samolot": 202856, "▁ദി": 75730, "▁ಕೋಟಿ": 53214, "▁중국": 24120, "▁আবার": 92806, "▁2019": 3640, "▁sản": 3989, "▁природи": 122307, "▁врски": 138291, "▁memudahkan": 138310, "办理": 62782, "mier": 21092, "තැන": 193851, "▁أوروبا": 124345, "תיקון": 111801, "▁Cultural": 38128, "▁poniedziałek": 198206, "wyn": 23004, "▁Ցանկ": 233926, "▁നടന്നു": 119238, "个人": 12914, "▁सदस्य": 15936, "▁Υγείας": 153964, "▁вызывает": 167831, "▁युनिकोड": 199549, "支": 11963, "преки": 115057, "▁szőke": 236175, "▁алга": 101384, "▁تۈگ": 232839, "▁پوي": 95006, "โฉม": 206929, "စဥ္": 32322, "▁comeza": 104202, "▁surovin": 187064, "▁đớn": 198638, "▁komodit": 202771, "มุมมอง": 172302, "ಿದ್ದೇವೆ": 121637, "▁групе": 89291, "ส่วนใหญ่": 87444, "▁personale": 16514, "▁erbjudanden": 146830, "덜": 171182, "▁începutul": 152153, "▁ბრ": 60394, "┇": 246842, "抒": 243402, "ထိုင္": 146372, "▁sama": 1847, "หน": 46313, "▁ମାଲିକ": 228492, "お菓子": 227042, "▁Hola": 47958, "▁polos": 33311, "▁зара": 118120, "▁кредит": 11460, "ɼ": 248519, "льним": 94605, "윅": 245815, "▁dopuszcza": 223592, "を使わ": 239179, "▁llegado": 121769, "锗": 249006, "▁foregå": 207189, "▁якості": 51024, "▁презентира": 186449, "▁ಇಂ": 124478, "การประเมิน": 226553, "顶级": 197741, "ня": 1951, "▁উদ্যোগে": 212013, "舞台": 43647, "툼": 244777, "▁kahdesta": 241445, "▁scolar": 184684, "啬": 249659, "쓰": 103855, "▁എല്ലാം": 62387, "▁Хэрэв": 154509, "▁राजपा": 176372, "▁Fundación": 76261, "áž": 19529, "▁doggy": 180878, "▁Einfach": 158824, "▁lelkes": 197915, "▁자격": 135093, "珞": 245334, "עשר": 174798, "▁اهڙي": 35982, "ඛා": 218253, "▁қандай": 41515, "ការពារ": 155259, "▁dhexe": 147611, "шего": 85280, "▁sluneční": 239438, "cta": 37966, "▁ieviešana": 242664, "▁sonuç": 79204, "庇": 233536, "▁Египет": 147332, "▁ሜትር": 172654, "倉": 90881, "휼": 247593, "ગી": 40381, "▁राज्यपाल": 191491, "▁близу": 180752, "color": 46133, "▁تھی۔": 28570, "▁Hikûmet": 229063, "its": 14481, "הי": 87637, "AR": 11909, "▁آمدن": 105773, "кво": 77224, "▁panga": 65176, "áll": 33126, "▁Během": 210921, "▁fáil": 24465, "▁අලුත්": 45193, "▁istaknut": 209709, "▁Economía": 149142, "▁мае": 24950, "▁الصعب": 174511, "1-1": 115727, "komercial": 223398, "▁نوامبر": 238955, "岁的": 41156, "▁آبی": 82434, "ທັນ": 98484, "থা": 56324, "▁serie": 6432, "▁emrin": 97487, "▁ਗਾਇਕ": 212242, "бок": 60906, "が無い": 157010, "▁ଗଣ": 131664, "▁hljóð": 163944, "▁უკვე": 23729, "⇪": 245504, "▁الإيراني": 160809, "▁aferente": 239104, "▁کرم": 127072, "さすがに": 223464, "噙": 248698, "kwenda": 123984, "▁abs": 43719, "▁збору": 167799, "▁Yama": 149958, "▁старшыня": 165697, "▁kører": 111645, "ဖြစ်": 22098, "▁پاڪ": 124761, "учен": 87645, "▁අස්ස": 227753, "освітньої": 242204, "хин": 113116, "▁किए": 53536, "▁Дүйнө": 220023, "▁পুরস্কার": 191851, "ыңыз": 29517, "▁حڪومت": 36058, "▁durdur": 173738, "▁период": 9687, "▁devam": 9996, "graaf": 67975, "прозрач": 139868, "ඝ": 94156, "▁stóð": 149500, "镯": 249667, "複製": 184787, "▁niekoho": 200581, "▁quen": 26746, "หา": 7990, "▁Bởi": 112334, "ándose": 55884, "▁մրց": 101362, "▁hvit": 90245, "จํา": 32424, "▁yazır": 163410, "▁شگفت": 147994, "vathu": 183835, "▁Flirt": 214205, "▁ishtirok": 54776, "▁обслуг": 228027, "▁데이터": 74168, "▁вниз": 165244, "▁Doar": 106490, "▁ਪ੍ਰ": 17949, "▁😃": 17718, "▁detalhes": 99301, "▁daarbij": 120513, "▁xếp": 67820, "38)": 131290, "感到": 20199, "▁الخام": 215571, "▁referent": 114792, "▁Սահակյան": 175371, "▁vývoj": 49164, "▁udało": 86465, "▁Geburtstag": 123190, "képpen": 92522, "▁ಪುರುಷರ": 228338, "▁чуждестранни": 237230, "ან": 10594, "பத்": 149048, "曼联": 183376, "obuhvat": 233368, "gı": 90131, "REM": 83852, "▁הלקוח": 166739, "▁چهار": 33802, "၍": 17044, "▁poziomie": 84842, "▁extern": 76714, "떤": 244227, "检察": 133979, "▁கருணாநிதி": 172606, "விடு": 202537, "▁чланови": 145968, "▁voda": 32291, "▁qarşısını": 113728, "▁każdą": 172263, "▁git": 62270, "▁олардың": 39740, "▁შეიცავს": 227534, "▁megállapítás": 205720, "▁Tenerife": 194872, "▁beloof": 214620, "▁katse": 45156, "වන්න": 44086, "▁kuchynsk": 223700, "රුව": 78348, "翊": 244649, "▁వివరించ": 231974, "▁ეწ": 177272, "▁Oideachais": 226187, "▁கன": 153390, "verlichting": 194910, "▁saulės": 203269, "▁bunları": 107358, "▁رأي": 74120, "▁Ehren": 198466, "▁(2009)": 93124, "▁чињеница": 172982, "эг": 11404, "सम्म": 14523, "▁государственный": 204400, "▁Ulinzi": 229657, "ក្រុមប្រឹក្សា": 217649, "շին": 127977, "▁اصلي": 78818, "ոք": 35884, "Full": 121962, "▁кмет": 88443, "▁undertøy": 192411, "▁tədbirlərin": 157058, "▁penser": 96314, "šajā": 92299, "▁ανοίγ": 175807, "enseignant": 174232, "話題": 52785, "laps": 96091, "癫痫病": 157551, "ဂ်ီ": 205581, "토리": 190829, "▁Tenho": 140132, "ṗ": 246874, "გონ": 84165, "เบ": 22560, "▁تفعيل": 221872, "ංක": 116054, "▁ter": 704, "▁ла": 25485, "起诉": 192537, "▁เมษายน": 151689, "▁પ્રકારની": 220235, "පෙ": 41633, "▁සැබෑ": 162231, "▁baseret": 147819, "▁बॉस": 161458, "▁направена": 185085, "ljak": 152423, "▁претстави": 197624, "▁139": 58166, "▁Quant": 75344, "▁ಪರಿಹಾರ": 126028, "သမ္မတ": 129298, "▁Mỹ": 14868, ":32": 29902, "幻想": 136635, "▁выкарыстанні": 214982, "▁vanhempi": 151087, "▁lov": 14964, "૦": 39490, "ולד": 69127, "▁צד": 133749, "▁húð": 193833, "▁inteligent": 69536, "▁Տես": 127549, "▁எதிர்ப்பு": 185568, "超级": 95458, "▁ਕੁ": 53188, "▁किम": 159689, "▁танц": 47252, "чица": 128409, "갑": 54272, "ต่อไป": 33705, "юється": 73308, "žnosti": 64410, "▁Bendr": 91683, "▁kaldt": 167953, "kies": 66009, "▁Какви": 164854, "▁cijenu": 175834, "oloana": 192973, "▁Nieuwe": 135165, "絡": 158061, "▁الموارد": 183437, "▁могли": 26196, "وو": 46147, "қан": 41303, "Ez": 76560, "υς": 9341, "▁Kár": 195558, "ຮູ້ຈັກ": 237642, "▁σωστό": 220935, "▁sölu": 130185, "▁boys": 115982, "上昇": 202040, "िम": 31914, "вещания": 230114, "▁снимки": 46671, "不像": 133327, "käs": 68735, "▁Іван": 51645, "双方": 29657, "團": 20425, "ที่นี่": 34435, "▁فلسطين": 78910, "пустить": 106676, "▁اسرائیلی": 141939, "やつ": 186182, "▁пазара": 110610, "▁véletlenül": 230908, "ntul": 99806, "▁밖에": 123861, "ideal": 122131, "▁Ostatné": 239386, "▁большая": 107339, "сля": 109574, "နွ": 102104, "▁munu": 93165, "▁працювати": 85618, "سۇن": 95358, "綁": 165643, "▁Bahkan": 49629, "▁כלומר": 131086, "овая": 46478, "▁ફેશન": 207976, "▁አልፎ": 176630, "耿": 243602, "▁odpowiednio": 145901, "▁khe": 128280, "▁تەشكىل": 159767, "▁Koulu": 128276, "▁Golden": 43114, "ദൃശ്യ": 140027, "💆": 248602, "ერია": 172889, "▁૫": 111839, "台灣": 6525, "ກາງ": 71313, "▁कोलकाता": 193999, "জন": 20285, "▁stopinj": 234005, "▁estamos": 18316, "▁технологија": 115037, "不过": 13334, "کول": 125935, "▁نوٽيس": 214909, "▁Tästä": 131727, "tön": 39474, "▁терет": 213036, "վա": 23507, "Vorsitzende": 167890, "▁Лавров": 187698, "hü": 61233, "▁investisiya": 165978, "▁පෙත්සම": 235400, "▁знам": 25872, "▁Dez": 119698, "▁logotip": 135985, "▁requiere": 100760, "▁पठ": 82301, "poçt": 112054, "alin": 37710, "▁relationship": 76755, "ਦੀਪ": 82614, "ପ": 6853, "▁riconosciuto": 232672, "plicht": 192994, "മാക്കിയ": 173317, "▁현장": 76668, "стрел": 63281, "▁yaşanma": 238774, "డూ": 110102, "盱": 249380, "原创": 187077, "ベン": 180174, "▁۳": 23124, "жене": 148781, "lezi": 57237, "▁बैशाख": 185424, "Бож": 66781, "▁konania": 174458, "▁프레임": 240466, "▁ਲੋੜ": 88862, "▁analizė": 205098, "Ώ": 227861, "▁Kết": 77577, "▁amplo": 123614, "▁ಪರಿಸ್ಥಿತಿ": 173808, "▁شيخ": 70883, "ത്തെ": 6894, "▁રોડ": 147207, "寄せ": 161701, "ເກີນ": 219255, "蜓": 249669, "भक्ति": 142403, "▁Kultuuri": 198718, "ји": 11843, "▁oorlog": 97367, "▁kirish": 139022, "▁indray": 128140, "▁спремни": 197262, "이야기": 182480, "tiivse": 88185, "▁funk": 23884, "▁22:00": 108758, "▁siamo": 27524, "▁Овде": 182207, "▁особенности": 134309, "已久的": 242263, "▁قىلغۇچ": 237781, "സംസ്കൃതി": 239780, "それぞれの": 109050, "ifique": 89073, "▁cantidade": 113495, "ცენ": 86118, "വില": 137696, "136": 131281, "จะมา": 128456, "▁њихово": 134832, "▁الطبي": 184941, "పోతుంది": 170091, "같": 216544, "১৯": 96475, "▁lengre": 148839, "▁menular": 177145, "▁Nosso": 189599, "จิน": 182758, "穎": 175740, "▁ആരംഭിച്ചു": 218174, "▁seyirci": 240452, "▁생각합니다": 200082, "▁čtvrt": 97144, "▁Awdurdod": 241356, "▁Mereka": 18847, "・・・・": 161085, "▁entrades": 180700, "▁educational": 162807, "▁талаш": 196860, "▁feststellen": 222880, "02/2018": 213321, "▁காரணம்": 91959, "▁Ć": 118773, "▁seçeneği": 186682, "▁ناجح": 242502, "▁Parece": 117695, "假": 14654, "vaj": 52939, "▁nehod": 114325, "पुत्र": 173753, "▁politika": 8724, "邯": 244639, "▁этап": 61373, "▁сучасного": 214040, "▁આટલી": 237928, "장": 3013, "▁hing": 101392, "bau": 13644, "▁köögi": 162902, "▁зал": 51417, "▁метрів": 202355, "іў": 26590, "▁vejledning": 138945, "tuksessa": 99759, "▁відпові": 56209, "▁betölt": 208521, "识": 60615, "શું": 115530, "▁घो": 74444, "▁қала": 28408, "▁nessuno": 88475, "Lab": 97381, "魏": 129009, "解释": 48704, "▁Fernando": 47256, "▁bide": 24357, "▁afara": 70348, "的通知": 93884, "▁lyf": 72411, "▁ಘೋಷಣೆ": 222309, "代表性": 202493, "▁uvedených": 203580, "外科": 142819, "▁duidelik": 100686, "-24": 33503, "▁dráh": 171741, "ຕ້ອນຮັບ": 157433, "ιακό": 57815, "▁byd": 35163, "▁udviklet": 160770, "▁গণ": 68088, "▁Пов": 85676, "▁derfor": 12882, "▁سره": 2753, "▁Naime": 117659, "▁ნანახია": 227952, "▁nás": 5562, "▁resulta": 31805, "zás": 14570, "НЯ": 117172, "▁pieniędzy": 129304, "ിക്കൊണ്ടിരിക്ക": 238825, "▁පොර": 152811, "▁jiwa": 67690, "▁Hä": 28863, "季节": 193334, "▁percorrido": 186058, "▁Bewerber": 239935, "▁Stanley": 138109, "годишни": 86234, "▁الممكن": 153662, "滑": 25522, "▁comunque": 38922, "▁sometimes": 68018, "▁Права": 94879, "▁이번": 26615, "냈다": 122507, "▁wyposażenia": 224849, "▁megváltoztat": 207187, "▁potansiyel": 182562, "▁kifejezetten": 166055, "▁lezen": 58401, "▁tvrdi": 74090, "▁Enstitüsü": 210015, "▁подобно": 65376, "▁изображен": 231073, "▁следи": 87008, "▁zvýšil": 216104, "▁التعاون": 93895, "▁കണ്ടെത്തി": 187730, "▁times": 20028, "បឹង": 153023, "➝": 248546, "▁verband": 108106, "▁इनमें": 222272, "▁കെട്ടിട": 206193, "是他": 100749, "май": 16960, "▁møte": 30390, "▁اردیبهشت": 106573, "▁случая": 78365, "▁новия": 98951, "ισε": 95338, "▁රජයේ": 93221, "▁Oulu": 156953, "ສົມທົບ": 237443, "▁Jur": 29629, "▁පක්ෂයේ": 143125, "ગ્": 66690, "ளி": 14622, "čani": 71602, "▁његова": 117506, "▁faks": 166004, "남양주": 234855, "▁गणेश": 62153, "▁פסק": 105772, "siga": 13350, "▁bestand": 88731, "▁questão": 76305, "诸": 124496, "▁slaap": 101297, "总是": 38373, "▁دورا": 163142, "зды": 87578, "▁കിട്ടുന്ന": 205155, "▁дэмжих": 120694, "▁parkering": 66928, "既": 18011, "▁Laura": 41193, "▁இருக்கின்றன": 232961, "▁Русия": 40053, "ంటా": 117203, "▁gondolat": 87370, "▁ord": 8597, "▁փոքրիկ": 192495, "inya": 67608, "ziko": 138667, "▁mò": 110494, "▁හේතුව": 93670, "೧೧": 241876, "▁веома": 42980, "upaya": 143921, "▁wood": 109412, "▁knæ": 186605, "▁የወያኔ": 156828, "ኢሕአዴግ": 164599, "神经": 133614, "ғына": 169985, "мө": 44876, "-8": 17376, "▁түүнийг": 113304, "": 248300, "Ă": 15835, "▁الأطفال": 68225, "▁quán": 62322, "▁взяти": 116515, "تشابه": 224712, "וטר": 126651, "▁budžeta": 140502, "Kom": 38882, "▁συμβ": 55653, "PUL": 148043, "ผึ้ง": 217018, "▁zgjodh": 237882, "ֹא": 192159, "▁(18+)": 25045, "līni": 160233, "▁vedeli": 165291, "▁предприятие": 114044, "▁jednim": 187676, "▁Energe": 113648, "несат": 193335, "▁néhány": 33014, "kulia": 62563, "糗": 245579, "▁Trình": 139461, "kimi": 34375, "▁உரை": 130110, "▁परेशान": 92660, "人も多い": 199868, "▁byt": 20225, "▁demeure": 192855, "▁ДВ": 115541, "ั่น": 107738, "▁спецслужб": 219403, "開催": 39516, "házban": 176903, "ПЛ": 97911, "▁oíche": 180590, "▁Santo": 36220, "連続": 181797, "▁Ljub": 54820, "的到来": 205987, "▁ਸ਼੍ਰੇਣੀ": 241904, "▁않습니다": 53398, "ទុក្ខ": 193073, "וכח": 136474, "▁burbur": 212030, "▁puto": 120369, "вна": 39965, "▁историја": 98602, "蹙": 246040, "▁fattig": 107179, "▁rulle": 132239, "▁예쁘": 234328, "തു": 8720, "▁Παπανδρέου": 181766, "▁هئا": 17958, "yos": 63603, "▁γυναικών": 223677, "ških": 54616, "▁자료들": 189242, "▁үндэс": 111893, "▁Úc": 153186, "▁трубопровод": 234497, "maso": 122118, "▁Federal": 18767, "▁potencjał": 202670, "グラ": 81832, "▁procedure": 50491, "▁درخت": 79394, "คลัง": 194955, "حاصر": 226979, "▁ĉiuj": 34004, "▁perubatan": 189340, "੍ਹ": 82355, "▁μέρη": 179776, "▁vyš": 58344, "▁pasākuma": 203456, "▁lienee": 206748, "ива": 26938, "▁suspect": 92610, "濱": 137748, "▁જરૂરી": 117443, "▁Kirche": 95659, "باز": 76948, "▁ਜ਼": 56881, "▁paskutinė": 239463, "funk": 54881, "ਲੈਂਡ": 169554, "רו": 15529, "▁شاگرد": 78092, "zaji": 86054, "▁Ըստ": 84468, "ຈອນ": 220672, "▁മുന്നോട്ടു": 194520, "▁შეტყობინება": 231986, "氢": 241208, "ilha": 122550, "▁állandó": 129578, "เนื่อง": 159998, "▁линија": 126113, "▁energético": 209725, "▁pursue": 237360, "▁v": 81, "▁անում": 101581, "▁ଥିଲେ": 78224, "ምህር": 175161, "plec": 195903, "無限": 119264, "▁cica": 145462, "▁இவ்வ": 186513, "▁Курс": 78938, "▁pitä": 129391, "▁പേരും": 203179, "ష్": 15765, "▁ruokavalio": 224950, "▁ieskaitot": 241935, "▁قوانين": 168579, "▁mulțum": 164953, "▁фамилия": 213361, "▁הקש": 178985, "▁រថយន្ត": 89798, "TIEDOT": 231745, "复杂的": 160559, "すること": 28087, "▁tycka": 197151, "isté": 97907, "▁recta": 148734, "sChat": 20579, "чика": 151778, "▁çoxdur": 175551, "▁atualmente": 162639, "موقع": 113474, "切り": 78687, "语音": 212098, "Õ": 52069, "storm": 129857, "▁Treffen": 171399, "inchi": 83850, "▁සිහි": 117880, "▁určený": 129493, "∠": 246549, "▁аграр": 105132, "▁meciul": 167707, "▁Đây": 37540, "▁числа": 63103, "▁تعلم": 94643, "▁pretože": 39302, "▁చేస్తుంది": 142635, "▁αυτόν": 82686, "▁Keyboard": 227247, "▁באירוע": 220589, "落實": 134459, "秆": 247369, "IAS": 83081, "蝠": 243805, "mg": 10035, "ສິ່ງ": 149828, "▁katram": 164112, "lasting": 120027, "aptitud": 220808, "▁ఇం": 42259, "▁першага": 195412, "▁istədiyi": 171841, "价格": 16806, "гэрэл": 124294, "ISMO": 190741, "撬": 244885, "▁ರೋಚಕ": 156141, "策划": 152885, "▁ପଛରେ": 213730, "▁하드": 129057, "ေဒါင္း": 182547, "▁pede": 44987, "▁SVT": 188793, "▁vaš": 41458, "▁Pertsona": 211397, "zita": 90104, "▁зависимост": 107022, "申报": 132718, "ుటకు": 243225, "に係る": 241542, "дас": 48438, "▁cirkus": 198904, "▁आग्रह": 70308, "▁vitet": 113332, "▁بصورة": 150497, "▁उपयोग": 33248, "utrustning": 123476, "▁Aikuis": 242200, "לן": 67873, "CCP": 191222, "▁matrimoni": 112648, "净": 82519, "▁سڑک": 118957, "kka": 5515, "اتحاد": 147538, "▁विजेता": 162285, "ଶହ": 212433, "ব্র": 187395, "▁Започна": 221644, "▁posta": 9738, "▁lisäksi": 32393, "▁коле": 29076, "aşınmaz": 205937, "▁categorías": 148116, "ekre": 50230, "▁жеңіл": 124211, "Map": 166179, "▁невозможно": 53625, "▁तर्क": 164508, "мов": 21958, "▁učestvova": 171579, "കൃ": 164082, "ខេ": 120413, "rella": 54862, "uslubiy": 235051, "▁ikkagi": 127616, "閻": 246000, "▁tanto": 4104, "▁రద్దు": 179308, "什麽": 206484, "출장최고시": 232629, "▁зарубіжн": 231548, "பொ": 138706, "▁ئاغرى": 231643, "讨厌": 232622, "▁skupin": 53610, "▁प्रिय": 103379, "▁сожалению": 75766, "▁Lajme": 125607, "▁ٹر": 61748, "有利于": 98630, "ري": 6578, "▁visiteurs": 185532, "ością": 80165, "檐": 245499, "▁nedir": 77116, "ינסט": 171127, "▁ئادەت": 206455, "ከር": 65404, "外出": 98928, "מלי": 94790, "▁ഗ്രസ": 212143, "▁एकजना": 217680, "▁edək": 35619, "▁ਗੱਲਬਾਤ": 223552, "▁Institute": 43975, "▁belirtilen": 182664, "klart": 142533, "▁אייל": 187487, "▁زینب": 171216, "SUM": 127944, "▁ši": 16250, "▁Impact": 161623, "▁انواع": 29238, "▁davant": 46867, "앞": 158225, "▁პარტია": 175553, "応援": 108655, "▁echipe": 145216, "ONTO": 198871, "ЛДА": 212126, "▁German": 30839, "атив": 24410, "▁قىلىشى": 166016, "▁Montpellier": 242965, "▁sikkerhets": 138816, "વારે": 119320, "▁2008": 2021, "▁בגוגל": 233817, "▁चुनौती": 110669, "▁literaturo": 174973, "ମା": 13344, "▁mbushur": 177964, "▁Երկու": 226957, "웅": 163219, "Cloud": 129222, "▁լրացուցիչ": 219198, "ෂණය": 83025, "▁Предлага": 113045, "罡": 247348, "ramai": 61305, "дык": 11731, "▁võtma": 190223, "▁लिख": 51198, "▁produktų": 138240, "▁výsledek": 196095, "▁propuesta": 71550, "▁hrvatske": 97795, "▁blynyddoedd": 214968, "▁Vär": 43392, "▁хотел": 21626, "feest": 132365, "▁സൃഷ്ടിക്ക": 151702, "▁venni": 107988, "▁franquista": 221015, "▁feliz": 33587, "▁MV": 66160, "률": 58533, "▁సం": 19203, "▁Waktu": 96528, "ยอม": 130552, "inama": 62804, "▁cantitate": 161035, "▁faktorer": 158344, "▁организма": 85814, "効果": 32785, "चुर": 161796, "▁داده": 10143, "緻": 182935, "CBN": 168847, "▁სტრატეგიულ": 241031, "▁tự": 5208, "බ්": 51569, "▁weiss": 165429, "▁கூறினார்": 173812, "▁ప్రేమ": 38518, "тора": 33891, "ırıcı": 149615, "▁Wow": 53505, "стои": 104118, "▁rule": 79986, "▁Ema": 85269, "ժան": 114612, "山": 2272, "▁koydu": 177943, "ÁN": 27096, "▁premium": 55941, "▁আলোচনা": 78171, "Una": 106396, "概括": 239195, "felé": 110953, "争取": 133702, "▁ችሎታ": 233863, "▁certificate": 163769, "▁सौंप": 235494, "ন্ন": 59641, "рна": 29482, "義大利": 129015, "1.7": 133760, "▁performans": 63526, "▁կերպար": 219145, "▁mæta": 187835, "▁Šil": 118193, "▁भ्रष्ट": 240438, "▁plec": 77913, "▁करोड": 24148, "▁рейс": 133007, "▁olmalı": 117007, "ंबा": 129108, "▁ஓவிய": 215239, "▁Эль": 206879, "▁halaman": 46852, "▁nedávno": 179771, "àtiques": 153057, "재": 7046, "สุขภาพ": 32726, "▁стойност": 70327, "verzekering": 89629, "▁تارىخى": 144297, "▁mener": 13613, "▁sinn": 23048, "▁ბოლოს": 80520, "6.2": 178121, "▁chinn": 191329, "лё": 41913, "▁Ystävä": 242542, "▁metų": 9864, "▁ରକ୍ଷା": 208775, "▁الحمراء": 232804, "áris": 150014, "▁Alışveriş": 237099, "▁dosah": 127675, "াধিক": 148145, "ખી": 112085, "KAZ": 169397, "沏": 247506, "ভাগ": 93915, "▁მართლა": 169030, "▁Stru": 63667, "▁showbiz": 197489, "▁پاڼ": 220430, "ଯାଏ": 98666, "▁calendrier": 221352, "▁üzərində": 63791, "▁сыртқы": 148260, "▁2004.": 44211, "▁rojnameger": 237873, "▁activiteiten": 86031, "▁prae": 11913, "▁kementerian": 226205, "▁София": 16296, "▁යවේදීන්": 242069, "schreiben": 116545, "▁පරීක්ෂා": 234269, "▁tartibi": 161238, "▁deciso": 74218, "▁dhigay": 93827, "导演": 119461, "传": 18399, "▁skarp": 105083, "▁감정": 143987, "খন": 90645, "▁එහෙත්": 51989, "▁asculta": 153993, "▁sveikatos": 76398, "ร่วมกัน": 110386, "▁അബ്ദുല്": 228579, "稠": 243687, "出演": 97600, "אנק": 167622, "▁importància": 167897, "льнага": 129135, "▁'": 242, "алар": 83941, "qala": 158971, "▁над": 2511, "▁гарант": 24397, "▁système": 31164, "💃": 245283, "animal": 161834, "▁چەك": 100873, "▁Punë": 166985, "▁viteve": 104583, "▁זײַן": 153585, "▁ಲೆಕ್ಕ": 219461, "외": 23383, "▁θεραπεία": 156133, "▁УЛСЫН": 219182, "lotte": 89576, "▁cărți": 161284, "▁reunir": 100742, "მპ": 106491, "ಪಾದ": 143673, "▁대한민국": 81774, "ások": 24852, "▁עובדי": 210743, "果": 13941, "▁பலி": 135115, "▁Γου": 215215, "laista": 45529, "▁፤": 77580, "▁बहस": 152623, "siyalar": 77564, "ਹਾਰ": 74580, "交通运输": 228468, "▁Ivan": 23698, "▁βλέπουν": 243016, "▁ขอบคุณมาก": 226116, "▁tūkstoš": 147503, "离婚": 127249, "▁મને": 25865, "байт": 75317, "εύτηκε": 211170, "▁chemische": 238121, "▁mund": 3209, "▁горизонт": 216991, "ฟ": 8603, "交": 6582, "▁makosa": 205001, "文化": 4278, "▁इतर": 29967, "▁Хүү": 108332, "▁hacer": 6303, "▁há": 5059, "该": 4941, "": 245817, "הצטרפות": 238799, "Holland": 143594, "▁явах": 111173, "্যান্স": 224306, "▁kurio": 53764, "親友": 221288, "飩": 246122, "▁kasashen": 148294, "▁anvendelse": 148675, "tsen": 54514, "▁απελευθέρωση": 239988, "▁estancia": 140718, "▁жооп": 62121, "▁filma": 30651, "▁getrennt": 223203, "▁المركزي": 170167, "▁ניסיון": 118454, "▁павышэнн": 234167, "▁slimming": 68208, "▁પ્રોજેક્ટ": 227521, "▁vienam": 131334, "亮": 16955, "▁ਸੈ": 74976, "▁langer": 52975, "rijk": 72103, "▁নির্বাচনের": 168689, "▁ndihmuar": 208691, "故意": 120759, "▁Прилико": 205890, "▁привод": 121450, "돋": 221879, "Conferência": 242878, "▁mix": 17664, "▁भोजपुर": 204907, "▁neuro": 37817, "▁مند": 63465, "▁внимания": 92944, "▁Gostei": 207478, "等地": 99900, "▁soluciones": 120529, "검색": 177111, "げる": 94265, "▁୨୦": 33667, "▁времена": 32475, "▁Pegawai": 116881, "▁могла": 39072, "▁भएकाले": 78215, "▁egz": 78413, "▁vů": 69709, "БҮЛӨ": 218811, "▁φάρμακα": 229512, "ûr": 31285, "▁chóng": 46228, "▁akcesoria": 195273, "កម្ម": 38609, "てきました": 174059, "▁ასო": 213336, "▁силно": 82088, "▁masker": 160961, "▁nhi": 47364, "▁همچون": 107698, "▁противоположно": 232738, "▁жасқа": 186358, "▁populer": 123839, "688": 134900, "▁сектор": 29214, "撣": 248939, "▁בזכות": 160868, "▁bæjar": 133750, "▁ସହ": 13954, "ээр": 8032, "▁teagmháil": 181762, "▁всё": 15039, "▁article": 5582, "ที่เขา": 167975, "പേര": 156621, "電": 6312, "▁معاون": 49631, "▁Προβολή": 205639, "άστε": 108705, "▁תת": 92453, "▁Konfeder": 213270, "▁mbele": 65839, "▁Eröffnung": 217888, "יבות": 47912, "▁रद्द": 99317, "▁Jär": 67778, "▁tekib": 186983, "ඣ": 249540, "▁chamada": 79302, "▁гол": 17510, "љења": 81794, "▁izah": 120401, "▁uśmiech": 131629, "▁قاتارلىق": 85318, "耘": 243446, "🇺": 245711, "۲۶": 223781, "▁malaysia": 113742, "हिन": 172050, "▁terrain": 70665, "▁breg": 115213, "▁المياه": 80057, "▁Hunt": 136392, "شام": 122041, "": 246981, "▁बातचीत": 185002, "▁интереси": 96898, "▁مستقل": 65148, "▁Ostatnio": 169155, "ழி": 40278, "59)": 78255, "▁azonos": 162038, "াত": 93916, "▁amici": 42759, "▁ದೇವಸ್ಥಾನ": 185453, "▁mhuintir": 232666, "มีเส้นเลือดขอด": 164902, "▁riittä": 99349, "▁চালু": 176842, "▁نذر": 204510, "▁వెల్ల": 209821, "▁बोर्ड": 51028, "▁heavy": 99162, "▁oddział": 112663, "▁تكوين": 214201, "োর": 98156, "мин": 11360, "ihin": 8760, "▁nemt": 86412, "Uradni": 154629, "▁קאמפ": 230595, "▁эми": 22039, "▁طالبانو": 20181, "33": 9185, "▁latihan": 79031, "institution": 165264, "CHU": 143111, "นิสัย": 218314, "▁Roulette": 70899, "넨": 243927, "נפוצ": 230986, "▁заявки": 173604, "▁තවදුරටත්": 167494, "▁rám": 65884, "遇见": 230640, "▁קול": 52059, "▁చదివా": 238345, "▁funksjon": 92757, "زل": 21148, "ទេ": 39727, "▁लुम्बिनी": 229944, "▁nastup": 119875, "▁daude": 45989, "▁ኤ": 58515, "▁pita": 78681, "▁dugo": 31793, "▁Salamat": 180066, "▁конкур": 99434, "▁Dhi": 60760, "▁remedyong": 168650, "辯": 194799, "▁ddefnydd": 197202, "добрата": 143347, "▁átalakít": 210133, "▁पाए": 55459, "▁ਸਰ": 54393, "▁Nederland": 13666, "▁ble": 2586, "ztu": 87614, "▁Frankreich": 118742, "▁αντιπολίτευση": 199092, "БУ": 39932, "锒": 249229, "လူထု": 162006, "وزي": 105268, "即時": 75038, "▁Tö": 106019, "▁sentir": 20994, "▁sidang": 122778, "виш": 96764, "▁schriftelijk": 213257, "▁urbanist": 187924, "daithe": 173958, "▁doświadczony": 238050, "▁kellett": 47373, "▁ಮಾನಸಿಕ": 231579, "بيع": 55703, "▁ipar": 123279, "飚": 247129, "▁სანამ": 125702, "▁მარ": 38871, "▁الإمارات": 70409, "🍪": 247903, "▁الاطفال": 234591, "▁Moscow": 124338, "▁성경": 157844, "▁klassisk": 74372, "▁אליעזר": 238044, "▁torquent": 199129, "▁proběhl": 222423, "엎": 245202, "▁smar": 94778, "▁პირი": 123308, "bonne": 145743, "▁Muh": 38601, "▁کیا۔": 38589, "▁ಹಾಸ್ಯ": 241024, "▁Karten": 129234, "RAR": 127607, "nuwun": 204565, "▁әскер": 221297, "▁goste": 80424, "အိန္ဒိယ": 232997, "▁88": 14073, "啦": 17173, "▁fallen": 91148, "▁Jen": 20426, "▁pràctiques": 200811, "▁ορ": 24305, "▁स्वीकृत": 215241, "▁ilə": 1594, "茄": 219136, "▁arv": 40710, "▁классификаци": 216518, "dags": 66698, "▁tüdruk": 131127, "暴": 23470, "▁territor": 181991, "cipta": 69315, "ဒေသ": 116206, "▁Ran": 33041, "▁урожай": 236081, "▁жарат": 145006, "▁FRE": 162821, "▁хотын": 65032, "wód": 58505, "क्र": 42278, "ыма": 131941, "▁njoh": 87793, "ଣା": 39161, "▁զրույց": 243269, "▁ಹಾಗೆ": 92439, "▁යෝජනා": 121308, "▁இணைய": 82598, "čila": 32466, "▁tuvāk": 159624, "▁کجا": 80729, "▁daugybė": 202518, "सु": 17251, "ikku": 51334, "▁దీనికి": 132939, "▁биз": 29135, "▁kurssi": 142681, "ກ່ຽວກັບ": 60015, "▁комнате": 171298, "队员": 149925, "▁Национально": 233290, "исање": 150542, "▁володіє": 227089, "▁дур": 31749, "▁saranno": 32900, "ställ": 21337, "▁لوله": 138970, "▁bertindak": 100832, "▁କରିଥିଲା": 167195, "▁menej": 69523, "cell": 34680, "ālajiem": 221599, "▁thuyền": 169666, "خوش": 175140, "▁rang": 17163, "рятувальн": 210878, "▁കോളേജ": 203208, "сах": 86058, "▁mo": 931, "揆": 246057, "▁เป็นต้น": 102664, "▁Suomi": 35584, "剌": 246359, "tumikia": 225059, "▁financira": 104533, "МЖ": 163037, "ените": 28766, "▁الطرق": 122534, "थे": 54661, "▁høring": 195383, "▁Bourg": 182359, "флор": 198158, "▁خیبر": 123697, "▁टु": 60340, "▁айту": 134055, "કરણ": 130867, "▁ወቅታዊ": 191423, "如下": 51018, "▁припинення": 170080, "▁පවතී": 199979, "▁параллел": 226770, "▁Općine": 148420, "Povestea": 222431, "▁שייך": 216393, "▁فهل": 181054, "▁oikea": 35234, "Запад": 220851, "敘": 157065, "▁communiqué": 188923, "ገዛ": 106374, "▁Кож": 106276, "بقى": 168849, "▁Galaxy": 13356, "▁partizan": 114385, "▁лікарськ": 159820, "▁οπότε": 178154, "▁närmare": 152330, "ODA": 95947, "▁Пат": 76511, "▁դահլիճ": 230430, "▁Niger": 149751, "▁регенер": 236140, "▁ப": 8838, "▁doutro": 156292, "▁секретар": 34078, "▁নেই": 41819, "▁लगाने": 129880, "miştir": 34663, "▁additional": 78301, "erien": 111468, "▁Ultimate": 137625, "▁sơn": 130176, "мыл": 155292, "▁متقاضی": 175395, "▁கெ": 116741, "▁Nr": 9308, "dijk": 151141, "▁xukuumad": 164122, "▁კინო": 90620, "旁边": 140569, "▁ғой": 120898, "▁დაკავებული": 219683, "▁Lega": 84671, "▁പാല": 86896, "▁inainte": 54236, "бит": 33303, "Ord": 143045, "vægge": 206384, "原料": 105336, "▁prenájom": 211769, "運作": 130570, "▁Fix": 96746, "ولوژی": 147552, "▁უნდა": 5567, "▁слоў": 173224, "▁діа": 96417, "▁Nors": 83429, "▁ਦੁਨੀਆਂ": 215984, "▁245": 122416, "▁hanki": 149752, "體育": 79241, "▁информационных": 203090, "Point": 147534, "▁vztah": 85866, "әл": 95768, "▁söndag": 80293, "▁abrir": 48776, "ün": 7640, "▁отрази": 207240, "▁Áll": 123784, "谛": 245875, "▁וואס": 8846, "▁Святого": 202724, "kyňa": 201235, "▁међународни": 153019, "▁yksin": 87718, "▁първата": 80558, "ကလည်း": 194335, "ाका": 104845, "▁फोन": 31162, "▁коментара": 65151, "ಟೆಲ್": 225693, "▁preuzimanje": 219382, "ирани": 19737, "▁Esimerkiksi": 152560, "▁કી": 121048, "▁orde": 45811, "той": 11452, "▁VGA": 181733, "▁ජො": 170677, "▁pembahasan": 205633, "ติดตาม": 45724, "▁الاثنين": 101536, "rünnaku": 242127, "▁Bucureşti": 76187, "▁jumătate": 122942, "têr": 184714, "▁գաղափար": 121339, "ट्रिक": 180399, "▁jota": 41188, "畅": 86308, "െടുക്കുന്ന": 217362, "▁scene": 28302, "▁крал": 110547, "ética": 39810, "▁Dusche": 199290, "▁төлемдер": 213455, "ქურდ": 241855, "▁dyna": 68728, "▁смрт": 59787, "▁kesi": 51368, "tsotra": 161709, "เพียงแค่": 136710, "▁Краљевин": 228400, "▁byly": 45245, "▁1861": 153774, "елегантн": 212252, "▁حکمران": 92310, "▁clienţi": 234362, "оў": 10226, "▁sekali": 8556, "岡": 60278, "▁FRI": 172837, "Pop": 127642, "▁leveren": 102347, "▁යාය": 194271, "▁አባቶች": 201126, "▁Krasniqi": 225822, "ով": 1754, "ส่วน": 17140, "▁कामयाब": 242149, "▁కారణమ": 217740, "▁সম্পূর্ণ": 168962, "▁Fisher": 169247, "▁लागि": 2944, "▁Želim": 153672, "ძინე": 171113, "그리": 219043, "▁Փետրվար": 210518, "▁ambacho": 116671, "▁gastronomi": 59975, "▁სასწავლო": 143498, "▁adquiri": 117418, "▁putri": 150235, "▁जिल्ह्यात": 201278, "▁përdorues": 213474, "▁mahsulot": 182336, "▁ಇ": 10199, "▁yhteydessä": 83759, "ერა": 74772, "▁deťmi": 206662, "猥": 244505, "ພອນ": 212820, "XXX": 115469, "▁doing": 20594, "도로": 67028, "▁Существует": 203890, "▁sistēma": 95496, "τών": 26923, "▁ھ": 19382, "▁saha": 54523, "▁Auk": 65101, "▁začíná": 141446, "▁Utamaduni": 204747, "▁frequente": 131174, "kus": 6769, "▁аскер": 112826, "ishini": 106390, "временно": 72365, "オリジナル": 162192, "▁људима": 98707, "honor": 186164, "▁ushahidi": 223090, "කිරි": 213382, "ிடம்": 60316, "▁ક્યારે": 238142, "浪潮": 229715, "纫": 249506, "▁viver": 98387, "catur": 148829, "▁strokovne": 189739, "нський": 86616, "▁घड": 57769, "娇": 191793, "▁اجاره": 171210, "鄺": 247140, "УПРАВ": 224166, "▁gam": 22314, "▁المسيح": 98455, "▁повече": 8768, "▁гарын": 127884, "▁Сап": 204820, "闫": 245007, "▁मेडिकल": 121568, "▁μήνυμα": 81007, "▁creating": 105233, "เกษตรกร": 207648, "▁szab": 146521, "苺": 246660, "присутству": 213847, "▁aanvaar": 93894, "प": 2138, "ström": 30011, "ολογία": 52265, "▁adayı": 157064, "ボン": 220685, "▁אותי": 42122, "▁Talian": 182846, "▁υποχρεώσεις": 240973, "▁kanan": 48826, "դո": 196823, "咨詢": 214414, "▁Seminar": 42923, "起來": 24827, "▁سپین": 204183, "▁arquitetura": 228652, "燦": 209088, "▁ಗುರಿ": 160437, "▁Level": 84136, "ණි": 38866, "공단": 196882, "▁304": 112986, "▁πολλούς": 151708, "▁Zoom": 97170, "▁پارلیمان": 168565, "ോസ്": 152247, "▁ವಿಜಯ್": 205321, "▁Лі": 18594, "▁ayaan": 92280, "않": 244899, "▁Brin": 129091, "▁hieno": 46982, "ORTE": 179068, "▁социјални": 160635, "▁ਵਿਰੋਧੀ": 219018, "▁आन्तरिक": 158434, "▁απλό": 181150, "怖い": 219848, "▁લીધી": 164986, "▁еколог": 126783, "ਨੇ": 30353, "▁მსგავსი": 108729, "▁ගොඩක්": 44255, "▁γεύμα": 238145, "▁Nag": 16321, "▁ল": 48319, "▁значна": 123962, "פיס": 131445, "ková": 20759, "定期": 47117, "到的": 78558, "源": 9730, "▁filologi": 222068, "spur": 48150, "زە": 98696, "▁hanya": 3102, "▁շրջան": 60002, "▁вакуум": 230468, "▁ಲ": 78275, "▁görülme": 208578, "▁bármilyen": 126748, "ње": 1412, "வார்": 120528, "▁проход": 90402, "▁Seçki": 208204, "yflawn": 240860, "єте": 73707, "▁goob": 75852, "▁сурагч": 158326, "▁Filmen": 126169, "binda": 195588, "▁seharusnya": 102419, "▁லட்சம்": 136439, "▁повідомила": 217612, "ценен": 208610, "ны": 1006, "▁vitu": 69464, "▁cadeau": 64811, "▁Kelas": 133058, "▁Osijek": 110887, "塁": 246586, "گری": 67604, "▁رفته": 69884, "▁sexuelle": 161489, "▁škoda": 160050, "▁malperê": 217644, "▁vua": 86729, "▁Kaar": 133854, "▁नसते": 218965, "▁ფული": 116412, "interromp": 123110, "▁વેબસાઈટ": 203483, "▁Aur": 16244, "葷": 246650, "▁pauper": 168760, "▁странски": 150953, "▁չկա": 61564, "▁डलर": 150460, "schloss": 87507, "▁восторг": 233609, "狱": 182942, "▁съвети": 154338, "▁Иногда": 161888, "▁noget": 8695, "ě": 2353, "新幹線": 243283, "▁நடைபெற": 147636, "▁yeelay": 216799, "лно": 52133, "▁api": 31470, "▁жарыя": 99934, "rota": 109645, "▁LUMPUR": 100317, "07": 8368, "▁cierpliw": 230025, "▁প্রদর্শন": 233146, "American": 127345, "▁03": 5098, "▁знали": 111452, "▁ചുറ്റ": 123753, "arkkitehtuuri": 243295, "▁meeskond": 213840, "▁tohoto": 48037, "ci": 318, "нките": 179233, "гач": 106650, "ਤੀ": 14930, "Ш": 5221, "راس": 54009, "too": 24838, "▁සංවේදී": 234212, "dow": 24293, "▁assfucking": 207820, "▁није": 4999, "χι": 44656, "करण": 55385, "硏": 246398, "▁അതുകൊണ്ട്": 148310, "▁காப்பாற்ற": 234988, "ỏ": 28494, "ење": 9954, "▁نیرو": 106162, "自信": 38434, "▁хвороб": 119750, "▁Například": 243311, "客戶": 20054, "▁FRANC": 195041, "▁valgt": 58026, "▁Olsztyn": 242967, "▁hjem": 16719, "▁Hälfte": 140321, "▁specula": 149575, "▁ona": 7598, "nięcia": 90509, "▁Länder": 120113, "ვე": 5888, "▁ନୂଆଦିଲ୍ଲୀ": 157459, "30)": 62946, "▁दोषी": 145925, "▁fietsen": 168888, "▁الع": 5537, "▁ailə": 31450, "▁dicho": 53200, "▁बलियो": 175056, "▁finanzia": 151535, "▁piškotkov": 90606, "בח": 62560, "▁mỡ": 143571, "nő": 27510, "黝": 249677, "▁víða": 172557, "▁करण्याची": 114751, "▁săptămâna": 208698, "▁Nederlânsk": 196086, "ketta": 130540, "▁Μέρκελ": 229154, "▁ວັນ": 29302, "▁Расея": 230896, "▁اتاق": 68215, "▁जोडी": 188696, "▁ngày": 3063, "america": 152644, "▁પડી": 71519, "kola": 24004, "▁eelnõu": 172660, "▁فیلم": 9630, "ETI": 60939, "коректно": 228184, "▁jegy": 79550, "▁fruits": 93151, "に行って": 81002, "▁අපරාධ": 103456, "▁mắc": 44062, "▁TEMA": 198973, "বিশ্ববিদ্যালয়ের": 132974, "▁politikë": 95944, "▁arti": 17662, "▁ստացվել": 205862, "кулов": 137615, "cido": 29011, "这个世界": 168024, "tuotannon": 203080, "tamista": 89651, "mun": 12303, "դիպ": 178311, "ደረሰ": 82956, "▁донор": 195603, "▁زمر": 149769, "▁ಪ್ರತಿಕ್ರಿಯೆ": 172292, "▁негізде": 144331, "▁қайтыс": 223619, "▁Aunque": 67170, "幅度": 171597, "입": 13187, "▁مدرک": 203137, "teks": 42917, "فح": 178797, "▁käyttöä": 149088, "▁ergonomi": 96811, "▁rég": 35775, "ительно": 80502, "▁recomana": 149541, "▁მოვლენ": 148179, "▁soomaali": 132444, "вания": 26464, "▁показателей": 180579, "▁коментар": 26461, "▁њиховим": 201886, "▁дървета": 224385, "▁tay": 6329, "▁helyet": 131319, "សេវា": 187847, "▁retning": 89180, "dhu": 21356, "▁Когда": 25202, "bekend": 146980, "пісалі": 228565, "▁ניתוח": 140828, "▁aquele": 92418, "ตอนนั้น": 219446, "▁Istor": 167202, "▁πρόσληψη": 241425, "▁ያደረጉት": 210984, "▁(10": 15094, "▁válság": 187897, "කගේ": 192398, "▁érez": 85816, "▁yhdistä": 153917, "▁ကို": 6134, "▁көрсетті": 222964, "ដក": 164049, "▁Ac": 9852, "TOP": 70675, "运气": 219802, "▁мов": 60492, "РАМ": 203826, "▁ઉચ્ચ": 200889, "▁dënuar": 199565, "мель": 73497, "▁vazgeç": 193949, "▁Bundan": 38083, "宗教": 48616, "▁куды": 165174, "มีผู้": 179572, "▁birinci": 33842, "구나": 179560, "自動車": 138709, "▁nəzarət": 61646, "ત્રી": 108228, "▁ايام": 195566, "สนทนา": 213076, "▁ולאחר": 183028, "▁سترګې": 239411, "▁kažu": 152710, "▁utjecati": 239727, "▁înainte": 41252, "ሳተፉ": 222155, "မီး": 96065, "教学": 22301, "ֻ": 241219, "▁Evita": 191344, "▁партнёр": 156760, "▁codziennie": 174584, "▁техните": 99179, "▁એસ": 113243, "біріне": 180468, "MISSION": 230498, "▁숙소": 157468, "กว่าเดิม": 204666, "stipr": 85343, "eysi": 175260, "▁põneva": 172753, "▁socota": 180351, "▁názvom": 168190, "xigeenka": 100138, "sprechen": 50277, "wnie": 63205, "▁pentadbiran": 140863, "▁δισ": 114000, "kanlah": 76561, "▁dollari": 79762, "▁друж": 55910, "klaring": 113943, "ยาย": 153724, "▁mm": 2866, "▁heilige": 191313, "Test": 111337, "▁Често": 146482, "граждения": 222289, "ក៏បាន": 193373, "▁Física": 135033, "▁opozitë": 164636, "▁արտասանություն": 132397, "尬": 243448, "ícia": 36844, "▁אברהם": 123451, "▁ранее": 80894, "▁Հայտնի": 221385, "▁पश्चात": 201373, "όρων": 101988, "▁highlight": 127308, "▁처벌": 238008, "▁୧୦": 50601, "▁మారింది": 198326, "▁کارهای": 85496, "ље": 8326, "ห่างจาก": 214405, "โรค": 23088, "▁święta": 166140, "ዳም": 178283, "▁راوړ": 142699, "▁ית": 88037, "▁حالی": 41854, "▁14-": 25055, "▁çətinliklər": 241119, "▁ujumbe": 133452, "mosios": 141673, "▁дорослих": 173382, "nami": 56854, "▁djeca": 83104, "▁pamilya": 95747, "▁Куманово": 191833, "▁kyseessä": 169329, "йдіть": 230997, "ירט": 54196, "▁Glasgow": 181787, "▁énergétique": 198211, "▁ਵਿਚ": 6240, "ladi": 8259, "돛": 248854, "үндөгү": 146540, "▁mất": 18516, "▁Петър": 161241, "▁sedikit": 14319, "▁Základní": 146269, "▁buenos": 126819, "▁հարթակ": 219627, "struk": 32263, "trá": 45685, "▁gözəl": 57645, "▁välittömästi": 221805, "님": 21254, "▁दिव्य": 154836, "¦": 112748, "ܝ": 247547, "▁മണ": 171363, "▁пров": 56137, "▁kesejahteraan": 183735, "ပါတီ": 76892, "▁anahtar": 196183, "▁Pawła": 204911, "RADA": 145716, "▁شما": 2768, "▁safety": 81900, "▁उम्मीदवार": 162667, "riti": 35435, "▁Quyết": 125085, "▁marknadsföring": 203863, "▁теоретическ": 206783, "вршен": 156948, "▁jedynie": 54521, "▁තියෙනව": 140103, "阂": 249630, "shirts": 112107, "▁feiern": 183434, "▁గడి": 185241, "的过程": 105425, "zek": 16425, "▁kendskab": 233240, "▁pogoje": 150855, "▁արժանի": 237723, "▁اٹھایا": 224772, "ช้า": 106060, "▁Anh": 9735, "▁strana": 33299, "▁מגיב": 183966, "؟“": 130535, "fter": 46327, "▁פע": 45521, "优先": 116300, "▁pagsubok": 192680, "▁випадок": 222679, ":20": 16619, "ČI": 94279, "▁fortalt": 194616, "ေန": 7448, "แก้ว": 52284, "▁נקי": 195892, "▁ਚੰਗਾ": 220162, "▁صوفی": 238376, "▁երկրպագու": 242277, "▁Продукти": 181166, "▁ਲਗਾਉਣ": 238045, "▁избран": 90660, "▁Gwobr": 221598, "шения": 79913, "▁Синод": 225612, "▁illius": 102959, "▁للح": 83001, "▁poskytnúť": 229499, "প্রতি": 197674, "▁marca": 7098, "tį": 23675, "▁pertinet": 226433, "▁ଫିଲ୍ମ": 116010, "orang": 10727, "▁დარწმუნებული": 216889, "每一": 48085, "რულ": 126153, "▁déanaí": 163275, "▁режиму": 162998, "▁ටෙ": 215202, "عقل": 174944, "▁చేశాడు": 138632, "oder": 51744, "▁iedvesmo": 240617, "▁mawalan": 26744, "kaling": 138751, "▁klase": 54141, "▁twa": 80059, "▁अत्यधिक": 228704, "▁بغیر": 62452, "▁Politi": 48267, "▁ёй": 91451, "ехалі": 211480, "▁Congreso": 79800, "▁Σχολείο": 221154, "▁arquitectura": 140693, "▁өнөөдөр": 85226, "开户": 194961, "▁investeeri": 178066, "▁Palm": 39287, "▁mlijeko": 226978, "▁վառ": 213719, "λ": 5970, "▁ihana": 42502, "▁zbiór": 197566, "▁изглежда": 54959, "▁световни": 174322, "▁cepat": 18983, "▁auki": 89324, "▁Gábor": 102607, "▁ಆನ್ಲೈನ್": 170798, "txt": 124326, "▁Darstellung": 203201, "▁საერთოდ": 113121, "▁ഇറങ്ങ": 221628, "Пу": 107371, "▁Вар": 42970, "▁रिकॉर्ड": 152910, "▁плаќа": 146458, "жилт": 117185, "▁šeštadienį": 239985, "здоров": 95330, "獺": 245826, "潦": 249664, "▁проду": 88053, "اسين": 138738, "▁188": 106392, "پزشک": 161743, "▁Кей": 68223, "▁vermoed": 154261, "បន្ទប់": 177726, "办公": 86638, "▁mektup": 237292, "NH": 27190, "hospital": 139804, "чење": 100780, "dim": 5771, "▁Toshiba": 215850, "肏": 247029, "▁χώρας": 54301, "vaid": 54207, "▁Cookie": 37704, "годишната": 127083, "▁Garoowe": 239737, "dagdag": 164717, "▁यहां": 31190, "▁sig": 1144, "▁email": 3340, "zá": 18875, "▁Ito": 47921, "maatschappij": 162536, "艺": 56844, "▁nostrud": 54436, "▁резултате": 162384, "▁munca": 52423, "▁код": 7792, "▁omului": 134074, "rækt": 93632, "ඒත්": 194549, "▁שקל": 108599, "ម": 6209, "▁ਸਕਦਾ": 47110, "▁Cai": 65205, "valikoima": 110153, "▁പദ്ധതി": 52607, "ibles": 101851, "▁neo": 16169, "▁이용자": 132270, "勝": 17874, "▁Sab": 15865, "▁لدى": 47115, "▁skaffe": 135768, "▁ಚುನಾವಣಾ": 144656, "活潑": 210441, "▁తగ్గించ": 195047, "мі": 2372, "čević": 118073, "copi": 59935, "▁कॉल": 135216, "▁signo": 65350, "▁Otto": 71047, "▁fact": 15824, "EKO": 69543, "だよ": 163138, "▁lëndë": 192725, "ിക്കാനും": 198039, "": 248874, "ացնում": 65327, "alala": 82923, "شقا": 75329, "วิดีโอ": 80398, "förhållanden": 211602, "▁одобри": 161232, "▁හිතුන": 158007, "▁կազմում": 90091, "ランク": 203400, "▁कार्ड": 62359, "▁دی۔": 156316, "▁mahkeme": 161945, "ເກີດ": 122427, "▁приз": 39775, "▁Maschinen": 165695, "▁pan": 2652, "▁učinkovit": 106309, "▁ಸ್ನೇಹ": 232173, "лган": 28224, "▁እርምጃ": 103464, "▁încercat": 174986, "▁17": 729, "▁Пак": 101519, "ABI": 107837, "ມີຄວາມ": 58301, "slipp": 133558, "▁usually": 56104, "gju": 72495, "ອງ": 57522, "ంత్": 163870, "ત્રિ": 165893, "suzluk": 208037, "▁ٿيل": 63510, "แจก": 150577, "ံ": 10714, "▁በአሁኑ": 127553, "▁teritorio": 193798, "▁möglich": 14637, "傅": 203813, "▁यूरोप": 206561, "▁শাহ": 96063, "▁rektor": 64485, "▁பூஜை": 233830, "beh": 35074, "သံဃာ": 220024, "▁ପାଖରେ": 142066, "▁එහා": 166483, "ინტერ": 112097, "▁meeldib": 148959, "▁मुख्यमंत्र्यां": 234598, "▁најстари": 188079, "▁taarifa": 34876, "▁Ami": 25472, "▁၅။": 191530, "▁повреди": 148318, "▁مڙس": 195740, "ыбайлас": 240214, "▁Olivier": 183433, "▁предмети": 85919, "▁gedrag": 96264, "▁इस्लाम": 136695, "pampiasa": 197409, "▁παιδί": 76513, "▁svar": 5598, "鸠": 249588, "▁Pārdod": 171612, "▁còn": 3531, "▁கால்": 137199, "ходили": 91160, "▁gepatroj": 231232, "▁човек": 10328, "管理工作": 174050, "ல்கள்": 158713, "▁ਯੋਜਨਾ": 229953, "躪": 249308, "▁распределен": 144675, "ธาตุ": 121807, "prowadzi": 140759, "대책": 153187, "▁készít": 95693, "▁پاره": 49887, "▁έδαφος": 223510, "▁ରହିବ": 119457, "▁ráð": 26681, "▁laps": 57904, "▁Goberno": 62992, "▁colecta": 183459, "urilor": 12726, "自動化": 201984, "鼓励": 64913, "▁사용할": 82934, "▁ഐ": 21281, "▁স্বামী": 138317, "밸": 181785, "▁mogen": 56950, "▁mirov": 33360, "▁सह": 20453, "ສູງ": 61854, "ጠሩ": 131023, "▁admin": 18022, "▁साथी": 85523, "▁stříbr": 209615, "▁zavarovan": 105634, "ρική": 99170, "▁tutte": 12675, "▁ಸಾಂ": 213004, "▁VOA": 24834, "▁occasion": 46505, "▁ପୂର୍ବ": 42209, "▁usa": 13280, "malıyıq": 203396, "வதற்கு": 193848, "▁مك": 57151, "▁પૂછ્યું": 229642, "▁anus": 123824, "▁European": 28811, "▁නාවික": 207084, "help": 73866, "▁ສົ່ງ": 34500, "▁جەمئىيىتى": 220077, "▁odstranit": 187012, "እንደ": 199333, "감": 13115, "спіль": 77539, "▁നിനക്ക്": 227530, "အနေနဲ့": 160509, "愾": 248631, "жується": 187015, "ستیک": 234439, "ಗೊಳ್ಳ": 104671, "上海": 11145, "▁kalah": 60675, "▁qiell": 215133, "▁tul": 38137, "プライ": 203765, "▁இறை": 171583, "លើកទី": 160324, "plu": 62821, "▁Ynys": 180666, "مثل": 27677, "▁šport": 19622, "▁Katanya": 133124, "▁НАП": 190797, "▁പേരില്": 136350, "▁Erdoğan": 38122, "ILE": 52099, "▁Saņem": 218291, "City": 115411, "▁빈": 99413, "ଜେ": 53140, "解决问题": 161091, "ntañ": 142482, "▁daarvan": 44533, "▁ДНК": 201435, "▁संसद": 63424, "▁వార్త": 140233, "▁човешкото": 233082, "紛": 127512, "▁kurią": 94107, "▁khi": 1907, "مرة": 123981, "▁Zapraszamy": 68687, "▁biserici": 149482, "▁pak": 2522, "▁Միջ": 179798, "設立": 76628, "khona": 82497, "▁සාධක": 217105, "▁हुँदै": 58484, "▁открити": 133404, "▁പോക": 42771, "još": 83135, "▁звязана": 229651, "▁पीडित": 124635, "medi": 17885, "嗜": 243387, "▁Informacija": 188525, "ନାରାୟଣ": 238873, "ረገ": 182790, "▁Kar": 3423, "▁Institut": 20048, "▁дија": 88456, "obligatoriu": 158681, "ごと": 183999, "▁capsule": 150143, "来": 1589, "▁cael": 8381, "▁рабочие": 210055, "嘮": 247834, "▁oppmerksomhet": 177473, "▁amewa": 137315, "▁الجسم": 82169, "▁Българската": 208325, "▁తెలిస్తే": 240434, "▁Ελληνικό": 183251, "стри": 31850, "▁борг": 189998, "▁vermeld": 116682, "詔": 247633, "▁spændende": 66056, "▁HDZ": 78025, "育": 23025, "▁അതിന": 143230, "▁kesatuan": 219687, "▁পরীক্ষা": 84211, "▁razlika": 165461, "▁өткөр": 63977, "▁Hunter": 134327, "ymo": 35801, "▁амбулатор": 240903, "MŰ": 217675, "տին": 159325, "▁ขาย": 23276, "▁yönet": 85320, "克斯": 112413, "▁osnovi": 143876, "▁從": 79695, "▁педагог": 24535, "▁Helsingfors": 240097, "▁behovet": 163053, "فرق": 136193, "鷺": 245992, "▁तिन": 124899, "ted": 3674, "▁എടുക്ക": 105947, "拉斯": 105008, "darbojas": 204168, "venant": 127922, "▁görmek": 101220, "跷": 245781, "▁Ministerul": 89963, "OMS": 144309, "▁जल्द": 106511, "箋": 245237, "൧": 241703, "▁ತಕ್ಷಣವೇ": 208360, "▁Nie": 2942, "໕": 245053, "▁КР": 56702, "▁solutions": 51347, "дүүлүгү": 179190, "▁capacity": 177399, "▁materie": 78266, "年の": 53086, "hä": 20530, "▁φορείς": 192334, "כך": 77432, "▁навучання": 168648, "▁ពលរដ្ឋ": 98808, "▁aparılır": 156810, "캐": 116110, "vaat": 74507, "▁obstoj": 147265, "▁nazwą": 228397, "▁Terkini": 151431, "▁көрө": 131910, "▁Hay": 9627, "▁مبتلا": 82018, "飄": 182934, "▁wilde": 77441, "▁السياسة": 159514, "ଣ୍ଡ": 25371, "▁Volgens": 60590, "▁lavoro": 10243, "▁yapılmış": 122831, "▁домашни": 53819, "ຜົນງານ": 221577, "▁Result": 126684, "▁NGHIỆP": 242640, "ро": 5866, "ពីរ": 140754, "tinka": 65028, "ΠΟΙ": 209887, "▁Iisus": 184741, "▁nástroj": 91807, "欢乐": 216350, "セックス": 156740, "iyeen": 84208, "▁ecclesiastica": 230907, "▁жы": 53105, "тър": 25067, "▁still": 7464, "沟": 192769, "▁megjelenít": 182636, "▁മുഴുവന": 240881, "ਰੁ": 175699, "▁позиції": 174218, "▁Hep": 95093, "étudiant": 183712, "ẵ": 249978, "▁Тел": 157334, "likum": 36121, "▁məqsədlə": 205161, "能": 1580, "ŁA": 153101, "त्त": 32700, "ற்": 37334, "▁Ниш": 97321, "▁inden": 18597, "收錄": 184822, "384": 117180, "▁واقع": 16009, "▁ска": 35130, "้": 8181, "▁Jak": 4422, "▁ກໍາ": 79195, "หมวก": 202652, "▁нэвтэр": 209576, "mitten": 116119, "īt": 18506, "▁گیاهی": 188135, "生活的": 62668, "▁ಆಕೆ": 115619, "▁पहिले": 72760, "▁soviet": 115524, "▁recibe": 113408, "ніцтва": 126589, "чења": 106608, "▁jazd": 104120, "▁опет": 122144, "▁गरिब": 198541, "arch": 59438, "ပေါက်": 153570, "ဂၢ": 166803, "▁behalf": 232045, "▁tillögu": 159932, "▁لعام": 166549, "ซ": 16942, "▁Duke": 51978, "▁tenebr": 221665, "برد": 60297, "/12/2018": 145652, "▁Анда": 120562, "ունի": 114194, "▁σημαντικ": 236662, "ridge": 91854, "▁Monitor": 49570, "▁کاهش": 20136, "▁έκανε": 48689, "пушти": 126406, "比較": 9455, "9.6": 201464, "▁Камер": 194745, "▁održao": 236406, "▁termen": 36930, "▁Cavalier": 232134, "▁ھېچ": 187979, "zza": 7070, "реєстр": 76981, "စား": 14070, "といった": 53494, "▁moduł": 211180, "▁дапамогі": 216192, "▁нужни": 231746, "▁दृश्य": 96723, "做了": 40179, "公示": 157514, "▁ашигтай": 193468, "懋": 245840, "▁loob": 29253, "▁tüntet": 196772, "▁Постійн": 242525, "▁recull": 176438, "त्येव": 231435, "يغ": 83208, "▁შავი": 117704, "▁kjempe": 73116, "▁ocorrência": 214012, "▁அவர்களுக்கு": 136792, "bilirsin": 225650, "ողները": 152661, "▁regul": 14878, "▁derefter": 116588, "▁три": 3146, "ଶନ": 193806, "▁Komunës": 239597, "schein": 52752, "▁știu": 121437, "▁foghlaim": 228290, "▁ব্যবসা": 117540, "éves": 151816, "▁jellegű": 167851, "▁disvolvi": 232815, "▁Bohemia": 211462, "Türk": 127065, "▁elmarad": 215112, "ರಾಜ": 87314, "ಾದರೂ": 56221, "▁behera": 127591, "▁Sonic": 177583, "chette": 142190, "▁sejak": 20741, "▁изпит": 202928, "▁сом": 38169, "▁găsi": 85292, "ম্যান": 135682, "▁πίσω": 59744, "▁դրամ": 37042, "▁szerencs": 112764, "ځایه": 233302, "▁ამბობენ": 205296, "▁vislabāk": 174623, "ใหม่ล่าสุด": 216131, "亿": 20798, "▁srpnja": 138046, "▁qualité": 21164, "▁زمرہ": 125311, "ملة": 95451, "ləşdirmə": 153995, "ອະວະກາດ": 236724, "anse": 20540, "▁preturi": 153693, "язку": 39504, "მინ": 43284, "කට්": 150619, "ແຫນ້ນ": 223566, "▁Космет": 231004, "▁cheann": 75403, "▁установа": 111974, "▁समायोजन": 238377, "發行": 107025, "▁آزمون": 50105, "80.000": 153395, "ھر": 34386, "փ": 18199, "▁ਗੋਲੀ": 174049, "▁младе": 168472, "▁MSI": 169187, "▁инсистира": 228359, "▁sisältä": 112911, "▁نېټه": 137234, "▁precizat": 133223, "čkom": 39609, "▁wollte": 34485, "दह": 178700, "▁රමය": 72062, "mur": 5130, "បុរាណ": 223909, "▁ଜନତା": 198826, "▁ταινίες": 192242, "empi": 37064, "▁रुपये": 33088, "αχ": 30779, "▁buux": 156338, "▁不过": 111621, "▁ninguna": 80230, "лиш": 39934, "▁కనిపించ": 73624, "▁кодексу": 157973, "を行うこと": 222196, "▁ಹೊಂದಿರುವ": 170356, "▁σπ": 33836, "krishna": 119478, "▁alkotmány": 229632, "▁helyi": 37669, "▁ฮ": 78941, "▁सहयोगी": 180657, "刹": 225713, "▁Von": 21209, "BF": 82350, "▁Południ": 238631, "ід": 31125, "თავს": 86908, "▁japon": 33050, "▁Ur": 4143, "۶": 49443, "ၿငိမ္": 201281, "技术人员": 196855, "▁cca": 36077, "▁gaga": 137666, "▁Міхаіл": 196950, "偷": 58920, "🍚": 248591, "дур": 119771, "▁revanche": 196993, "▁domein": 173603, "考驗": 228240, "霧": 103812, "▁जरुरी": 123228, "ौँ": 50278, "▁знания": 71901, "判決": 193491, "ဓာတ္": 132106, "▁beetje": 53998, "माथि": 50822, "▁בצפון": 174717, "▁mír": 80011, "殖": 193418, "▁nhóm": 42106, "▁cưới": 89481, "▁τέλη": 215451, "ปอนด์": 238178, "tui": 18425, "чним": 148229, "▁adesea": 198318, "ać": 7326, "▁duen": 16703, "σες": 70546, "▁Türkiyədə": 102901, "▁Informasi": 60448, "▁Jolay": 198459, "▁75": 4948, "▁අස": 56893, "込まれ": 167080, "▁Sol": 6678, "▁grupp": 73076, "uses": 29001, "▁сырткары": 208294, "▁onko": 75030, "배": 15170, "▁tunni": 84518, "▁Jugoslavije": 203872, "פרסם": 100575, "▁umræðu": 121405, "▁بایستی": 200110, "▁excelent": 148200, "houden": 80040, "▁wakhti": 183883, "bör": 93466, "▁Ayuntamiento": 144355, "ሀይ": 177573, "ائیں۔": 180818, "▁cambiar": 45135, "▁História": 142936, "▁England": 30715, "ERING": 127674, "▁Fortschritt": 217564, "villkor": 159986, "hesi": 160291, "▁మహబూబ": 188435, "tó": 5627, "▁Belgrad": 217339, "▁Әлем": 172704, "▁ऐसी": 60432, "▁spesielt": 49275, "▁為": 125035, "▁Аталган": 230540, "▁фарміраванн": 241654, "▁Νίκος": 160263, "War": 71947, "繁殖": 221771, "▁пажњу": 149154, "▁ტერიტორი": 103816, "▁223": 122216, "▁دیو": 126690, "▁мислите": 108452, "▁Aðal": 161820, "▁ഗര്": 208474, "ിയത്": 63511, "优化": 66930, "▁Seoul": 178397, "▁Sisältö": 233399, "▁Dansk": 29630, "▁התגובה": 208794, "▁Metall": 94492, "▁Мұ": 63848, "▁ξ": 79057, "▁повышение": 153470, "roda": 44007, "▁عرصه": 111096, "ිණි": 114701, "gumu": 47917, "▁viktigt": 60862, "▁특별한": 121380, "▁આત્મ": 206033, "▁favorit": 26918, "aodaidh": 234758, "を探す": 162243, "സ്വാതന്ത്ര്യ": 137477, "▁répondre": 62223, "▁søk": 76079, "▁رحمه": 154149, "▁makin": 52023, "▁કોઇ": 49026, "▁bibin": 82290, "▁ഒഴിവാക്കി": 231755, "憨": 244857, "မန်": 146946, "▁Öncelikle": 195832, "▁κίνηση": 121968, "▁سۈر": 83865, "▁nehéz": 80094, "▁પ્રમાણ": 171854, "▁anonüümse": 242973, "▁ټوېټر": 190568, "zahl": 57292, "▁дүнтэй": 208492, "ໃຫມ່": 44692, "▁grave": 17202, "▁lëvizje": 134176, "▁Mười": 191549, "ov": 515, "▁biçim": 173719, "ότερα": 65149, "▁laga": 6327, "的小": 16394, "ผู้อ่าน": 224117, "▁লাশ": 172414, "ดินแดน": 237647, "▁Jornada": 142344, "▁assenyala": 231337, "▁dažādu": 71940, "ৰী": 108942, "▁искуство": 85001, "เดินทาง": 40867, "▁следует": 22385, "stêd": 148952, "▁Përgjithshëm": 212598, "▁praktyk": 104926, "贵州": 126985, "▁venninne": 211992, "赌场": 146701, "เป็นหนึ่งใน": 213042, "risë": 61791, "▁khoa": 19002, "▁நல": 142792, "▁sofern": 186388, "▁Album": 37340, "▁Michael": 11617, "▁വലിച്ച": 155750, "▁ଜିଲ୍ଲାର": 183666, "laştırma": 137953, "▁omnia": 31337, "賣": 20389, "始まる": 231272, "خلاف": 160462, "▁שס": 165513, "▁ፓ": 111544, "▁құрылыс": 111947, "▁seu": 1169, "▁곳": 39373, "▁Ελ": 90374, "▁chồng": 35496, "▁moich": 114779, "▁ειρήνη": 232325, "▁comentaris": 65674, "νί": 67504, "त्र": 14894, "▁wanaweza": 197983, "नि": 6945, "sil": 10801, "ខុសច្បាប់": 236853, "▁אינטרנט": 116758, "▁바람": 100343, "▁prezinta": 196610, "▁rewş": 159048, "YU": 81776, "ด้วย": 3918, "kam": 8500, "▁axaftin": 152901, "😶": 247442, "▁gavo": 158554, "分かって": 190062, "▁hudbu": 198849, "▁కోర": 63042, "▁tapahtuva": 236155, "授業": 123973, "▁cán": 58044, "laringiz": 159421, "▁anunciou": 145738, "▁haavon": 184645, "▁nominal": 109650, "▁ଆୟ": 180435, "ńskiego": 64578, "▁doktora": 110650, "▁Kapital": 92122, "▁preiskav": 239487, "▁Jord": 79565, "▁üli": 111578, "▁көзқарас": 156771, "▁גבוה": 76477, "▁esitatud": 152034, "▁aéreo": 215627, "계": 11931, "იშვილმა": 181069, "19)": 98864, "▁ngokwe": 201073, "▁έστειλε": 237887, "ሳብ": 124590, "▁põranda": 223653, "ակների": 170539, "▁Вардар": 133494, "▁compensa": 56381, "ให้เป็น": 109180, "оста": 33751, "❆": 249516, "▁nesten": 51465, "▁sava": 57203, "індивідуальн": 157533, "cidade": 125379, "▁bloggar": 129684, "▁ಬ್ಯಾಂಕ್": 115801, "ിന്റെയും": 169869, "تايىن": 180779, "గ": 4701, "だけに": 186398, "▁strony": 22267, "首度": 183119, "▁оплаква": 226774, "क्षेत्र": 122356, "▁mustahil": 220668, "▁түүний": 65546, "▁आश्चर्य": 171187, "▁प्रक्रिया": 37504, "▁Խ": 27658, "▁estrena": 161064, "▁تعتبر": 113867, "▁રહો": 186743, "失误": 221072, "ซี่": 98770, "shinda": 59167, "拙": 243788, "▁estis": 4168, "压缩": 226160, "▁बागलुङ": 189717, "инг": 22484, "▁метара": 183095, "▁لایحه": 210059, "▁μέλλον": 83285, "▁тече": 122394, "▁Nekaj": 191706, "▁Če": 5404, "▁barcha": 37923, "の中": 65691, "▁тобто": 78616, "$": 4369, "靨": 247825, "▁ಗುರುತಿಸ": 181609, "▁geïnteresseerd": 215375, "▁நிறுத்த": 129325, "Sau": 143568, "▁seguintes": 55002, "▁مولوي": 228916, "▁ਵਰਗ": 123893, "▁ಕಾಮಗಾರಿ": 180116, "▁осигури": 130054, "▁skandinavisk": 226941, "▁zelené": 216981, "▁মিডিয়া": 109477, "▁Khoản": 177670, "▁perdere": 75324, "▁Må": 38458, "みませんか": 200680, "jaks": 100179, "▁Koment": 61449, "ijas": 32543, "▁আলো": 123998, "▁Црне": 127053, "▁бел": 16739, "▁maombi": 204854, "ᅩ": 247296, "▁armada": 173222, "▁sikit": 61013, "▁desayuno": 197382, "▁ohranja": 159876, "▁caput": 139790, "მთავრებ": 198586, "▁atractivo": 154115, "▁entradas": 126121, "▁ই": 10814, "▁យ៉ាង": 45668, "▁təxribat": 227853, "då": 118460, "▁طبقه": 84417, "вала": 11589, "▁zagra": 130728, "▁modellen": 100398, "▁diseñada": 243129, "ことが多く": 236667, "haber": 91688, "▁kopurua": 198846, "▁отвечать": 206517, "▁বেড়ে": 164990, "kuja": 45884, "èse": 132210, "▁fondos": 102643, "できて": 115386, "gqi": 183696, "▁срещу": 19173, "▁Topp": 64740, "▁մասն": 116562, "▁Rene": 130238, "▁Etxe": 63060, "മരണ": 190830, "▁1967": 28980, "щик": 67697, "บกพร่อง": 226716, "▁الحاكم": 201912, "▁چيئرمين": 163917, "klus": 82789, "說明": 41403, "▁భగ": 199386, "▁ସାହାଯ୍ୟ": 214922, "▁замежных": 159837, "▁பாருங்கள்": 195741, "ሏቸው": 225127, "جس": 94304, "▁zkušenosti": 118556, "▁fabulous": 222522, "▁Merdeka": 214979, "алося": 113491, "▁christian": 124017, "টন": 139313, "szerkeszt": 118190, "▁quin": 48220, "▁үүнийг": 163966, "▁քննադատ": 208297, "▁інформаційних": 214901, "▁efektiv": 58163, "▁parhaiten": 212293, "▁රටට": 134333, "ireo": 24275, "شكل": 45225, "▁వాయిదా": 220549, "▁هجي": 54234, "▁kihívás": 173918, "▁کشورها": 128328, "▁દિવસ": 31030, "كى": 15272, "▁Konkur": 101529, "▁estas": 1397, "▁៦": 65581, "▁cướp": 182174, "ಸಾಗರ": 238455, "वस": 77477, "": 248299, "▁Viết": 188613, "▁sânge": 145754, "▁dydd": 77465, "进行": 3327, "▁제공하는": 141877, "202": 143179, "ෙමි": 117656, "▁Active": 88441, "▁काठमाडौंमा": 157379, "θησαν": 176480, "▁kendaraan": 107302, "▁الخرطوم": 231562, "▁masura": 122632, "▁instalacións": 141619, "▁ಪ್ರಿಯ": 218993, "사고": 159008, "股價": 219982, "អាស៊ាន": 184979, "▁Käytä": 194275, "▁არიან": 44114, "ոյի": 86994, "▁czy": 2966, "▁fulani": 147413, "▁mesmas": 138267, "▁sämre": 198266, "▁Ля": 84373, "ம்ப": 42749, "▁kategórie": 175756, "▁fra": 588, "▁Ciclo": 197896, "▁nozīmī": 171143, "တီ": 36936, "▁عده": 146576, "ผิด": 43387, "▁ఏమీ": 175085, "▁ઉપલબ્ધ": 162226, "χτεί": 205541, "▁అధ్యక్ష": 199504, "▁politică": 140452, "▁일찍": 232439, "途": 32931, "כים": 30315, "itambulisho": 242472, "▁измам": 170975, "浐": 249279, "▁zaś": 85341, "復興": 153269, "สมาธิ": 193968, "▁sucesso": 49231, "▁krožn": 237405, "▁crise": 38024, "▁ciężki": 154860, "▁साखर": 183039, "vie": 15959, "▁매장": 176070, "▁знају": 175720, "▁ziua": 39136, "▁били": 12128, "ไค": 210877, "▁হামলায়": 202714, "▁бизнесмен": 170525, "▁kvap": 124973, "▁kemiskinan": 229494, "▁гэдгийг": 63792, "▁ପତ୍ର": 134892, "▁sagatavot": 134340, "▁επιτυχημέν": 235804, "บริจาค": 186658, "多家": 79515, "ਸੰਯੁਕਤ": 231883, "亲密": 227748, "▁tək": 62575, "▁رغبة": 240021, "小說": 81378, "▁Кодекс": 65877, "եւոր": 163072, "คลินิก": 186657, "rdim": 66342, "▁वास्तव": 146125, "▁최대한": 207145, "くれて": 119341, "บํารุงผิว": 199700, "дво": 76333, "▁yerləşir": 206510, "unjuk": 59756, "▁pancake": 225544, "▁увійшли": 208712, "หาร": 118067, "▁האש": 145534, "▁nastaja": 194724, "▁gặp": 18046, "▁келіп": 92817, "不断提高": 183864, "邱": 142300, "▁solicita": 30280, "▁tzw": 90784, "▁временски": 220418, "▁යයේ": 172164, "▁Mod": 16269, "ích": 10767, "▁समाधान": 57854, "的知识": 146563, "▁ඊයේ": 78762, "▁اسپ": 82312, "絶対": 173229, "螞": 249840, "opinió": 152315, "▁мала": 21541, "โอนเงิน": 223384, "ଦ୍ର": 86938, "▁osale": 51794, "▁والے": 7314, "▁אפל": 219901, "▁палац": 165602, "▁Shafi": 137409, "▁vahel": 32525, "єднан": 91122, "โทร": 61099, "telj": 55512, "▁Telangana": 125537, "scrição": 125953, "▁Arglwydd": 231888, "▁menyeluruh": 231913, "▁болка": 122819, "▁한다": 13311, "مز": 25520, "▁tava": 17264, "▁rikt": 73124, "▁De": 262, "▁względem": 116870, "▁بلاده": 170972, "▁причина": 36717, "▁Политика": 65775, "▁пе": 8898, "ၾကပါ": 173553, "▁EI": 89190, "▁Thema": 19536, "diq": 65299, "繫": 238163, "887": 138392, "▁विद्वान": 243220, "▁stile": 54206, "रुप": 81664, "▁apa": 2241, "boll": 78723, "▁πράγμα": 115819, "▁რამე": 101239, "▁אָנליין": 163595, "▁נזק": 148413, "ografi": 25262, "vjet": 19783, "увани": 119894, "ಿದ್ರು": 222979, "▁två": 9252, "▁Aufnahme": 139205, "▁మొక్క": 207655, "▁futuro": 12084, "mıyor": 62316, "▁asesina": 183868, "▁Möglichkeit": 30788, "▁वर्षमा": 114793, "モバイル": 212163, "เทอร์": 228483, "▁হয়েছেন": 153369, "ΤΙΚΟ": 224656, "屬於": 57216, "ڪار": 44418, "бя": 35003, "洵": 248635, "ტუ": 38285, "▁plastique": 199270, "▁එලෙස": 238644, "račun": 110081, "▁құрамы": 173647, "▁சாப்பிட்ட": 194525, "▁ചെയ്യാന്": 101050, "▁과정에서": 191204, "▁Bez": 15967, "ไฟ": 21128, "▁овој": 11275, "Mes": 113709, "▁pirtûk": 154939, "ˊ": 246844, "▁faktur": 100389, "Христо": 236688, "▁antara": 7253, "▁adviseren": 216438, "▁نشد": 85057, "สะดวก": 62676, "యినా": 196754, "▁Grau": 118209, "▁qoray": 168829, "▁BTS": 162664, "誤": 53985, "▁표준": 171594, "▁vỡ": 156015, "▁Чем": 94321, "裕": 101701, "▁كبرى": 229207, "▁הציבורי": 157515, "▁Honor": 58744, "▁مذهب": 103021, "kii": 7072, "▁заканадаўства": 184569, "?”": 1854, "ТОВ": 190906, "▁ඉවර": 140739, "вшего": 90569, "▁rejstřík": 128301, "ിൻറെ": 231798, "▁levels": 90926, "▁своего": 24840, "▁بديل": 221662, "inos": 41331, "▁existir": 137632, "shop": 10534, "": 245671, "ель": 19108, "▁coloro": 94999, "747": 139091, "髯": 248625, "กาญจน": 209094, "▁واسه": 165183, "▁Roland": 85190, "вторых": 107737, "コピー": 202255, "▁tjeneste": 65554, "▁tijdelijk": 196351, "▁म्हणतात": 147072, "鈞": 244080, "▁məqam": 147986, "លុយ": 108006, "퍽": 246185, "▁ولذلك": 182633, "▁tegnap": 193802, "χή": 48198, "▁Nghymru": 40552, "ėtojų": 241825, "▁Ježiš": 168592, "▁салата": 162990, "ліст": 82570, "юючи": 133298, "▁smelte": 199010, "בליק": 181615, "▁тыйым": 190118, "▁mood": 52528, "▁maalin": 62169, ":09": 30628, "ტანა": 88077, "▁hỏng": 163562, "קוס": 149211, "▁СССР": 31479, "West": 138271, "पक": 64447, "▁ИТХ": 227171, "▁децу": 106823, "▁prirodi": 229664, "▁yaqaan": 139496, "▁Vše": 110615, "▁확인": 24921, "▁anlatı": 148130, "▁στόμα": 203776, "▁alltid": 9644, "▁Sabah": 43085, "ramento": 104704, "▁slovenskega": 163023, "హం": 106994, "▁zanesljiv": 189073, "午前": 125408, "▁GALICIA": 223067, "宣传": 29052, "▁পাঠানো": 211991, "▁улут": 151784, "▁கவலை": 173011, "▁Գագիկ": 147650, "▁familje": 41546, "สนใจ": 59976, "łuż": 61215, "▁գն": 63578, "▁ගියේ": 82322, "▁תא": 61487, "▁Kuzey": 138887, "järjestelmää": 203366, "▁chocolade": 236165, "▁కూడిన": 227216, "ಗತ": 172086, "▁ਰਿਹਾ": 31886, "中国": 1930, "▁production": 36049, "▁random": 96759, "짠": 244789, "▁କା": 21868, "▁world": 8999, "▁technický": 168321, "▁ಮಿಂಚ": 228035, "▁Had": 28129, "▁განვითარება": 119634, "屋さん": 161667, "สื่อสาร": 197269, "▁Điều": 17108, "จะช่วย": 122754, "嵐": 231499, "អ៊ី": 82815, "▁difficili": 201765, "אטרקציות": 180475, "▁усваја": 230915, "ಕ್ಕಿಂತ": 124450, "▁전자": 74882, "養成": 194235, "▁professional": 23182, "ොත්": 26721, "▁मो": 16866, "棗": 244228, "بمجرد": 228395, "▁waxaan": 29142, "▁FACEBOOK": 135585, "idő": 66975, "▁कमेन्ट": 228482, "▁zda": 29108, "ової": 23876, "▁composta": 90443, "▁हालत": 152841, "▁קישורים": 109290, "ORNA": 202379, "تطوع": 218565, "▁살펴보": 177607, "▁ବିମାନ": 150994, "умен": 89654, "▁periodi": 128763, "▁berasal": 52572, "▁tiem": 42302, "▁plačila": 167654, "▁zime": 53487, "▁gap": 43599, "▁procédure": 129306, "ীন": 96654, "▁revend": 191527, "転職": 108285, "▁uspešno": 103121, "▁हेर्ने": 183656, "дзіце": 85734, "▁ವಿಲನ್": 240426, "▁बोलत": 162366, "▁makke": 130708, "▁ଅପ": 113888, "▁тодруул": 207742, "▁agradeci": 145162, "▁ללקוחות": 213241, "ічныя": 185207, "▁projektoj": 114079, "▁érettségi": 231543, "▁Սեպտեմբերի": 202309, "ዳ": 5040, "▁verific": 110975, "▁خلال": 5784, "▁кар": 9553, "냈": 177701, "▁Liep": 151203, "skolen": 65492, "钜": 246293, "מעדיע": 240143, "▁vacina": 181861, "▁მომავალში": 213446, "家里": 44495, "现金": 98794, "▁penkt": 177597, "▁Τέ": 173694, "And": 37839, "▁galo": 78235, "ජි": 43907, "ений": 41690, "▁if": 2174, "RAMA": 166928, "▁अन्यथा": 215054, "鶏": 244335, "▁властивості": 155170, "▁keçib": 183085, "vous": 13048, "▁TAL": 89577, "▁5.": 1892, "▁bersiap": 242467, "▁senin": 84734, "엡": 246522, "▁yozish": 193800, "▁pire": 136889, "▁Uniunea": 160272, "▁deloc": 107995, "▁‫": 12106, "▁Sheekh": 84337, "kong": 45310, "მუ": 122333, "▁مۇھىم": 90891, "த்தை": 8285, "▁Possui": 241781, "▁территории": 30724, "csok": 131289, "testületének": 115361, "▁fe": 3820, "簇": 245141, "▁sướng": 172463, "▁primă": 158830, "▁suola": 150045, "▁разреши": 194266, "ивши": 57758, "▁модернизаци": 146222, "▁Σταύρο": 234385, "▁пря": 104907, "▁Ereb": 135113, "▁соединен": 198092, "▁Қаржы": 162029, "▁потребителей": 174666, "▁آتی": 87070, "画面": 40465, "▁götür": 44158, "ಿಸಿ": 14544, "▁sukurta": 166873, "్లో": 40209, "▁annan": 20361, "✾": 248833, "▁TIN": 81453, "▁pozytywny": 213119, "▁Luksemburg": 228275, "▁dicha": 155316, "涉案": 227375, "▁Sərəncamı": 227707, "▁sexleketøy": 235286, "▁gospodarstva": 166503, "▁pregunto": 241112, "bhava": 165462, "▁Besøk": 192840, "خى": 70455, "ോടൊപ്പം": 121095, "▁bestemmelser": 216697, "▁création": 50976, "▁stöðug": 180765, "▁mạo": 186435, "▁reveni": 82177, "▁oder": 1367, "λλη": 44998, "▁ପଣା": 200486, "ድል": 182430, "▁सकिन्छ": 61896, "▁ચાલુ": 137459, "щата": 30344, "▁ਇਤਿਹਾਸ": 126997, "▁lluita": 111138, "мете": 95399, "▁pelos": 25192, "रेट": 86205, "злуча": 239163, "거나": 35771, "▁namenom": 153973, "▁ଗଠନ": 198235, "▁برگ": 89589, "▁الي": 23864, "▁foundation": 137374, "▁ಅವನ": 99449, "eminyaka": 213948, "출장서비스보장": 233734, "▁organizuar": 141660, "▁сурталчилгаа": 189713, "▁adekvat": 212737, "tokset": 147883, "ىتىش": 126963, "bic": 45966, "ač": 37565, "២២": 171306, "▁interesante": 29305, "▁mbalimbali": 24258, "מינים": 97933, "▁ফলে": 166563, "үм": 34085, "▁شوي": 10401, "▁ფორუმ": 216855, "的能力": 52991, "▁ບໍ່": 21940, "▁ibn": 82945, "▁tuturor": 51134, "想到": 35626, "hava": 82582, "팜": 243738, "▁pozostaje": 176152, "േറ്റ": 59452, "놈": 196513, "مطبخ": 178217, "▁rhwy": 189949, "ሰራ": 31415, "女人": 25099, "寬": 58327, "あ": 13165, "▁ΤΟΝ": 203343, "▁ready": 43542, "▁trgovine": 139927, "▁խնդիրների": 149256, "060": 130997, "▁kommen": 14450, "▁anyagok": 119078, "▁تىر": 125988, "্যান্ড": 151464, "▁ଭାଇ": 151417, "▁Разбира": 135091, "▁fatti": 72717, "▁పరిశీల": 221197, "tillbehör": 190642, "▁mandag": 74161, "បន្ថែម": 100263, "売れ": 202286, "▁Hjemme": 180820, "▁poteva": 127817, "▁zdieľa": 162904, "੭": 226171, "▁ពិភពលោក": 120757, "▁जुन": 44046, "▁फेला": 177445, "のでしょう": 117899, "nie": 701, "▁erre": 10056, "▁Arbitra": 242522, "▁octo": 162264, "გორი": 200743, "▁exposición": 49181, "▁koskeva": 109796, "▁vrijblijvend": 156754, "μο": 15233, "追加": 61109, "▁ආණ්ඩු": 120206, "▁Στον": 144738, "▁ślub": 90174, "ทุ": 96295, "▁pareng": 138683, "▁భార్య": 83077, "▁అరెస్ట్": 222335, "▁разнообразны": 194019, "চ": 15845, "▁perawatan": 109856, "▁recrute": 175474, "▁Мор": 56422, "بې": 130524, "踨": 247836, "vnega": 152447, "творени": 197265, "▁आये": 152855, "เท่า": 47663, "▁Resultado": 187054, "뎠": 249303, "ქან": 139671, "АЎ": 214321, "▁menikmati": 56015, "ගේ": 3704, "▁cuma": 27547, "کاری": 56432, "▁명령": 213243, "torului": 91425, "referent": 237025, "▁Wichtig": 127686, "▁નવેમ્બર": 194865, "帝": 55425, "统治": 201246, "▁diverses": 59754, "延续": 177295, "▁Tribun": 137977, "อนุญาต": 120643, "kî": 17942, "▁Haur": 124473, "ιό": 70945, "255": 135455, "▁khuyến": 85447, "ngan": 39638, "▁dikwels": 150756, "▁очисти": 197536, "ainmneacha": 239374, "‿": 245856, "▁exact": 24763, "shuv": 128462, "▁श्रेय": 217190, "uksella": 107683, "▁Spletna": 102265, "▁prezentaci": 196362, "▁controllare": 195891, "ዞ": 48971, "▁وجد": 94092, "▁sông": 90677, "▁স্থাপন": 202191, "tv": 8283, "ján": 24165, "▁योजने": 163362, "▁estima": 25902, "▁rizgar": 156543, "▁iş": 4659, "rial": 51626, "AHA": 52056, "dli": 31761, "▁majalah": 170186, "वून": 52307, "▁வேக": 157649, "▁Marmara": 187683, "▁الثورة": 127046, "PALVELU": 236187, "▁አቋም": 166322, "უბ": 55415, "▁истину": 184734, "▁၀": 51048, "豉": 245870, "▁Lợi": 202233, "▁예정이다": 125305, "ीने": 115069, "▁справ": 17921, "دۇق": 123632, "▁gefragt": 152632, "▁toitu": 146320, "ciągnąć": 206406, "▁насилство": 187655, "▁seksiä": 147896, "▁последовател": 84556, "▁জাপানি": 227720, "▁የመጽሐፍ": 195365, "စိမ္း": 193615, "motif": 178319, "▁ਮੈਚ": 217671, "๊ก": 56907, "▁izgradnji": 239963, "▁hadits": 121449, "ዕውቀት": 199933, "▁જિલ્લા": 122949, "▁zeggen": 52173, "▁Fire": 31143, "他們的": 63680, "處理器": 216813, "...[": 56842, "കാരം": 102905, "▁გრან": 203999, "▁szeretettel": 201914, "ΑΣ": 44110, "ণ": 13880, "▁주님": 196435, "▁좋아하는": 151803, "▁Respublikası": 22915, "凤": 181723, "حركة": 122357, "▁συστήματα": 217558, "ಫ": 46538, "Йорк": 71244, "▁limpeza": 129033, "احمد": 214349, "▁нэгж": 82610, "▁จํากัด": 34718, "健全": 102979, "синин": 157309, "ബൂ": 154965, "▁dāvanu": 226201, "▁pārliecināt": 172264, "תחום": 90655, "ԱՂ": 208971, "јски": 101521, "ρινό": 199031, "▁مهندسی": 55399, "▁деньги": 23192, "подозр": 101142, "适用于": 170015, "宓": 248406, "teľ": 16939, "ласан": 81577, "▁ਚੋਰੀ": 230889, ".000": 8557, "一片": 55392, "ستحق": 212496, "战争": 58541, "▁parter": 123755, "▁Када": 47007, "▁เวลา": 45398, "iei": 23510, "▁Kirja": 40886, "uojant": 71560, "▁qon": 102185, "▁erfüllen": 163366, "磋": 217439, "▁חב": 70503, "▁zistiť": 212249, "の記事": 120362, "▁мыкты": 113842, "▁nepasi": 129109, "▁Casi": 138761, "▁Bölümü": 150634, "▁môn": 37496, "▁divin": 82370, "Waxaan": 176032, "▁trọng": 9899, "▁علي": 6748, "▁चंद्र": 86024, "▁Jeruzalem": 200355, "▁respekt": 24337, "広告": 89886, "▁البترول": 239307, "▁betrachtet": 222713, "▁بنياد": 118250, "▁qərarı": 93166, "▁tebe": 71369, "geordnet": 180425, "ърт": 133845, "▁받으": 126739, "▁තිබෙන්නේ": 184212, "نضمام": 155343, "▁proposto": 165926, "▁ജീവിക്കുന്ന": 238487, "крат": 29717, "▁آتے": 111143, "▁juttat": 211577, "▁بت": 13396, "ニング": 124096, "▁Kolkata": 152983, "▁še": 2402, "▁त्यो": 23647, "፦": 54164, "汛": 244041, "▁Ltd": 24890, "▁idegen": 111227, "▁ఆరోగ్యం": 176014, "▁ใกล้": 131051, "▁годишно": 130829, "▁মি": 37563, "次": 4465, "חוץ": 89642, "▁دانشجویی": 159500, "▁peniaze": 99985, "갤": 244832, "▁lado": 13085, "▁Prä": 105012, "埚": 249243, "կս": 180648, "▁beste": 2184, "▁prestation": 105812, "ুম": 104797, "▁اشتغال": 125524, "▁юрист": 112827, "ອອກແບບ": 188074, "▁resistente": 124044, "▁fonctionne": 86892, "▁БАЙГУУЛ": 229057, "▁vidět": 98000, "▁phambi": 217167, "▁Final": 27188, "▁ayudará": 176841, "▁сигнал": 32177, "▁szko": 71777, "▁acima": 76883, "▁កម្ពុជា": 15569, "▁vielen": 24786, "▁televizi": 50882, "dala": 11241, "▁നമുക്ക്": 94180, "▁turning": 174548, "ાઇ": 27320, "▁ସାଂସଦ": 201335, "▁sien": 19648, "▁시선": 213811, "中華": 66772, "出来的": 74335, "1,9": 198889, "▁constata": 104849, "▁dã": 153985, "▁Кал": 27877, "gaba": 90196, "سيد": 83821, "▁örök": 78892, "▁längst": 93997, "▁altına": 74234, "▁ڏک": 107280, "▁arutelu": 201402, "excursion": 180976, "▁najmniej": 88889, "▁GSM": 96600, "▁Muse": 78736, "σαι": 157681, "▁7.1": 115384, "Вясна": 221485, "▁benefits": 72382, "▁قطعی": 174405, "▁ကိုယ်ပိုင်": 224479, "▁диссертаци": 234976, "▁ddewis": 162932, "▁ਕਹਿੰਦੇ": 227516, "▁хүрч": 176819, "▁infant": 87880, "▁γελ": 204247, "▁μη": 23227, "уванню": 191173, "▁जनते": 200558, "▁formado": 109179, "πλα": 67750, "▁ስርዓት": 114924, "▁ਮਿਲ": 42868, "▁кәсіпкерлер": 213931, "▁profissionais": 57255, "строить": 83198, "▁Jag": 2377, "放松": 129597, "朝鲜": 72535, "Ü": 8047, "бывал": 174866, "▁habang": 52007, "▁Ольга": 157456, "lið": 39045, "▁ဖန်တီးရန်": 219653, "בנות": 79174, "▁지방": 71589, "▁miljardi": 142712, "▁πώληση": 188845, "▁ନ୍ୟୁଜ୍": 101024, "számítás": 197958, "▁Vehicle": 232362, "▁Crow": 135451, "▁prov": 24355, "▁баримт": 47234, "▁szem": 26095, "▁শিখ": 226548, "▁Következő": 223913, "acteur": 132987, "▁wątpliwości": 170036, "▁বিন": 170394, "ွယ်": 80887, "уй": 68771, "评": 32219, "მოდა": 206838, "ктан": 142800, "struksjon": 189230, "▁модел": 23012, "▁sıvı": 214527, "▁Житомир": 185786, "▁cubilia": 198329, "年起": 137997, "▁bla": 9932, "▁detayları": 204662, "ປອດ": 172372, "ranê": 174036, "▁predviđen": 191023, "nat": 7695, "Ниж": 175153, "▁думи": 63820, "▁xwe": 2170, "▁фудбалски": 220805, "▁fyldt": 133328, "▁kļūst": 127809, "ക്കൂടി": 232191, "▁okno": 143160, "▁qilinadi": 136630, "些": 31509, "▁slučaj": 74254, "▁bixin": 122927, "▁제도": 138731, "▁Rao": 72733, "่ํา": 76150, "▁ਸਵੇਰੇ": 238604, "Ազատ": 140830, "▁Environmental": 231527, "▁nabarmen": 115919, "▁μέρα": 54415, "ນອນ": 202060, "▁Válassz": 228737, "ῥ": 249250, "անալ": 53478, "▁ਸੰਗਤ": 164745, "他人": 39997, "▁importance": 131011, "这": 1842, "ในเรื่อง": 137027, "▁Kan": 2734, "他说": 49617, "▁гейм": 203801, "▁nedavno": 128316, "器": 5032, "▁phải": 2334, "▁neuz": 140767, "▁ಹೆಜ್ಜೆ": 223126, "▁۹": 47085, "ıl": 13605, "سازی": 50597, "撰寫": 235422, "كلف": 141938, "āciju": 24224, "▁vietoje": 90477, "▁жестоко": 169035, "哞": 248761, "▁చేర": 38872, "▁anmeldelse": 128989, "▁Këshilli": 109065, "▁മുസ്ലിം": 184590, "▁осигуряване": 183677, "İT": 104886, "▁Paşinyan": 220990, "▁продолжен": 229015, "▁перестал": 190381, "▁যত": 199838, "▁उच्च": 26801, "לט": 21295, "ဘူး": 25122, "▁ministar": 59618, "▁zmogljivost": 217117, "χες": 151595, "▁Einblick": 177859, "▁Mrs": 108084, "▁sempat": 40643, "▁betragte": 204901, "▁perthyn": 182694, "ോടും": 114673, "▁babagan": 189895, "ுவார்": 224717, "▁1:2": 163828, "▁dışarı": 174943, "建材": 129070, "ពៅ": 222057, "▁استفاده": 4303, "▁الدعم": 138703, "ók": 14115, "▁liaj": 134422, "cari": 23762, "kke": 5222, "▁розныя": 129643, "ologia": 14108, "▁त्यसमा": 167759, "lähetys": 222633, "▁edilme": 118469, "▁укључи": 203654, "▁допомогти": 163928, "hotmail": 84624, "بورد": 207323, "▁otwiera": 159488, "ລັດຖະ": 124822, "▁انٹرویو": 158432, "pri": 5293, "▁עומד": 87247, "▁všetci": 106413, "ديك": 206036, "▁излезе": 74214, "Ȇ": 249141, "biljett": 156198, "▁موافقت": 152047, "▁оренди": 236139, "▁գործը": 183708, "fig": 83671, "ЙН": 160633, "βγάλ": 229047, "リフォーム": 196575, "▁Brez": 73408, "▁Oktoba": 154906, "NS": 22479, "▁choix": 31545, "▁henvendelse": 168362, "▁bet": 1600, "反复": 166118, "tanong": 145816, "▁ڪمپني": 192732, "▁تىزىم": 190126, "▁nød": 113059, "valmennus": 238411, "ピアノ": 214850, "နဲ႔": 7627, "▁مسئولین": 178809, "▁beroemde": 242420, "▁сітуацыя": 201731, "▁dan": 123, "▁these": 6097, "▁utemeljen": 220616, "شناخت": 237013, "▁председатель": 200093, "පන්": 77342, "▁gerçekleştir": 38636, "▁सदा": 97731, "▁शिविर": 164320, "▁الزامات": 145728, "enos": 76131, "▁паведам": 81190, "▁иштөө": 208854, "▁besch": 85365, "▁طرف": 5108, "nensis": 143355, "▁მხარს": 238026, "ব্দ": 175126, "▁Βρυξέλλες": 239285, "玉米": 199647, "▁fali": 119855, "ଣ": 8693, "▁úloh": 72380, "죵": 248095, "▁ಸೇರ": 143265, "ickým": 59445, "தும்": 63838, "お弁当": 241546, "▁är": 369, "▁знаком": 58584, "▁bērna": 120273, "▁каала": 167793, "mark": 10015, "▁styr": 33791, "▁сказав": 70540, "શુ": 132776, "▁naszej": 26585, "ध": 14808, "▁بط": 73443, "▁syntyy": 189600, "▁hänellä": 221575, "brana": 139689, "verksamhet": 138020, "▁valandų": 216252, "▁Leit": 66914, "▁trabalhos": 95241, "▁tutmuş": 223411, "▁paragraph": 151268, "mas": 1510, "▁እንደ": 5193, "▁الكافي": 228518, "▁képesség": 100071, "▁видно": 62669, "вме": 28579, "lona": 59664, "▁schönen": 90765, "▁At": 1913, "▁علاوہ": 54109, "聖": 24128, "智": 15624, "▁കൊണ്ട്": 23578, "審議": 229321, "▁келесі": 129503, "▁ЮНЕСКО": 189694, "ხედ": 47561, "▁desfăşura": 172262, "资深": 220873, "ാധി": 114477, "▁JUN": 150885, "ประจําเดือน": 224533, "▁ойлгож": 209879, "▁íomhá": 242162, "ОК": 34455, "▁నేరుగా": 235757, "▁Luleå": 227870, "▁вредни": 217700, "▁γυρίσ": 228044, "▁ыр": 59263, "▁wrote": 54397, "節約": 205149, "▁буди": 134144, "窘": 243708, "▁എയര്": 196593, "臟": 186211, "▁Monkey": 213289, "▁таңда": 81720, "తలు": 102187, "▁patay": 171081, "ǁ": 247710, "殊": 152546, "▁kerajaan": 14542, "ừng": 74566, "▁заметил": 87363, "▁dosis": 101424, "▁mwynhau": 213227, "▁järgi": 44676, "▁офіс": 116692, "▁lòng": 11553, "蒸": 70388, "ඩු": 71469, "▁धाव": 127811, "▁Лу": 15983, "▁doğma": 208952, "риб": 178494, "▁ասաց": 39763, "▁пријатели": 124474, "เบื้องต้น": 183789, "▁těchto": 71976, "▁mú": 23296, "▁instalaciones": 105328, "္": 10355, "つもり": 131304, "▁hərəkət": 50814, "▁bulu": 58874, "▁pemandangan": 171537, "▁υπερβολικ": 233523, "▁воле": 104726, "▁Bygg": 56233, "жете": 84327, "▁Sehingga": 73052, "flat": 150632, "▁Araç": 163765, "▁contribuir": 86786, "듄": 248796, "▁аттуу": 119363, "패": 40739, "▁initiative": 99082, "▁totam": 118021, "ຊ່ວຍເຫຼືອ": 173411, "▁François": 115065, "▁soorten": 119410, "▁veebruar": 126012, "AZ": 17200, "▁kool": 132836, "▁Sempadan": 207818, "自行車": 196286, "▁როლებში": 174225, "دب": 87458, "gula": 44190, "get": 3794, "▁zunächst": 94651, "▁қауіп": 219987, "▁áfach": 199328, "ынды": 47356, "мейді": 104946, "▁şəraitində": 226915, "▁ប្រទេស": 19791, "▁într": 9317, "▁உடனே": 181392, "ഴ്": 80236, "▁virš": 52079, "րեց": 96467, "▁stručno": 177626, "▁Lot": 50462, "▁รับ": 26165, "▁inceptos": 204449, "Stat": 135206, "▁minutit": 141624, "院校": 107815, "drin": 66671, "ipun": 19880, "mogelijkheden": 224225, "▁Diện": 187262, "▁πληθυσμό": 241636, "▁kupiti": 103274, "marrë": 176909, "▁സംഘടന": 90462, "НУ": 35106, "▁zbatim": 162369, "▁Европско": 178857, "▁популарни": 235439, "ினேன்": 214307, "भन्दा": 28826, "▁zaposlenih": 161332, "▁جوابدار": 171780, "หนัก": 44385, "▁květ": 114658, "▁тендер": 91988, "▁Uten": 82885, "▁provoz": 99946, "▁וואלט": 174708, "▁genética": 218931, "▁चोट": 160727, "▁работни": 67422, "Latvijas": 106476, "४१": 121248, "біологічн": 227020, "etatik": 40683, "мал": 20933, "▁heijast": 228567, "▁കയ്യ": 154772, "▁Fick": 201081, "Pra": 50344, "▁Vy": 5030, "rozwoj": 177225, "▁ഇതിനു": 197978, "▁inviare": 188486, "▁υπέρ": 88552, "▁kiểu": 55840, "أشخاص": 130825, "ndertussen": 205357, "▁отчая": 181129, "แท็ก": 178956, "ង្ក": 159224, "▁വെട്ടി": 184384, "▁поддерживать": 205526, "וגרפיה": 237411, "を買って": 199425, "这种情况": 147882, "▁फडणवीस": 190569, "▁পায়ুসংক্রান্ত": 213601, "▁pct": 150914, "▁അവിടെ": 52115, "矛": 244646, "zd": 14724, "▁stosowania": 168965, "▁Dolayısıyla": 193525, "वो": 106920, "▁hər": 7580, "▁সালের": 119226, "цый": 48813, "▁configuración": 177443, "▁dezvoltat": 162095, "▁Annonser": 218853, "ლიდან": 173720, "▁Pain": 122700, "▁полном": 155980, "हम": 85498, "▁prizor": 149929, "▁யாருக்கு": 221732, "▁konaklama": 190660, "▁نقص": 135787, "▁jambo": 40538, "KV": 64831, "▁mobili": 37110, "▁ኢየሱስ": 74684, "▁atsi": 16620, "▁crkvi": 223275, "▁powiedzieć": 100839, "▁ψυχ": 59024, "▁environment": 65998, "szolg": 178353, "tyyppi": 97208, "▁Због": 114671, "لاشتۇرۇپ": 210741, "▁kondi": 71596, "▁berhati": 179499, "▁મહિના": 107306, "tine": 10325, "▁bediening": 195513, "좋아요": 160424, "▁introduce": 65508, "▁apg": 145776, "▁actress": 215542, "▁هن": 4735, "ődik": 154340, "▁Мак": 50303, "▁оригинальн": 234042, "จอม": 117613, "USIA": 207332, "vándorlás": 237088, "▁даде": 27115, "▁Vuosi": 177186, "ṣ": 37267, "▁réaction": 173088, "▁naleznete": 151681, "▁NATUR": 154482, "キッチン": 233379, "квартир": 165968, "▁millors": 96162, "ということは": 112922, "▁فور": 70346, "▁rijetko": 221486, "首爾": 208862, "▁Gabon": 176392, "▁համա": 49924, "▁aizsardzība": 200665, "▁kriminalitet": 192555, "råd": 28274, "▁Пошук": 166157, "▁collège": 203508, "ถือว่า": 133932, "ลาซาด้า": 238198, "▁निवेदन": 161186, "▁kielégít": 232797, "ΣΤΕ": 202403, "▁obiecte": 161279, "▁туралы": 5660, "様な": 137941, "▁Chomh": 149571, "壯": 104742, "▁Serok": 164162, "▁fidei": 138491, "▁vaší": 172529, "▁അധിക്ഷേപങ്ങള": 177336, "▁යන": 12873, "👊": 246325, "ມຽນມາ": 221339, "▁cilin": 60534, "▁ஆறு": 157536, "▁bajêr": 208938, "▁spotyka": 160901, "▁נכון": 62090, "dām": 110816, "▁vén": 82935, "قاب": 44132, "иски": 68100, "笋": 244797, "▁Qodob": 205395, "▁sửa": 41751, "ΤΡΟ": 207331, "▁ໃຈ": 91353, "▁читач": 183237, "9,9": 178692, "▁δυνατότητα": 75667, "▁وکړي": 38072, "ძაღლ": 242887, "综": 147257, "下来": 32303, "属性": 167294, "لىنىش": 75592, "我就": 30495, "▁खेल्ने": 207551, "▁საბჭოს": 130129, "▁వరంగల్": 165682, "▁orgán": 52052, "ANJA": 94661, "▁1979": 24849, "▁skoro": 33129, "或是": 18958, "▁decisión": 45542, "▁Ethiopia": 57811, "▁ομο": 103196, "▁petrece": 101567, "▁valgus": 85981, "▁यज्ञ": 160791, "ႏွံ": 212312, "ɖ": 247421, "995": 152261, "▁Lat": 75346, "▁kungiyar": 121611, "ţă": 24425, "attività": 68267, "ēties": 62336, "▁ውሳኔ": 84219, "▁кәсіпорын": 174416, "盯着": 191167, "▁vytvoriť": 173472, "ਬਾਰ": 151519, "ซะ": 90550, "▁मुहूर्त": 235740, "▁vēlas": 118998, "▁камион": 173585, "▁진행": 19217, "▁gata": 33651, "岀": 248440, "▁ganti": 94013, "гуч": 166296, "▁šią": 80201, "▁Bevölkerung": 125767, "архітектурн": 242282, "▁automobiliu": 178671, "▁Naruto": 175184, "▁werkt": 42633, "▁ବ୍ୟା": 95858, "▁drwy": 38215, "▁последний": 120023, "תאגיד": 212880, "תחנת": 166662, "▁Damian": 220758, "▁эмоции": 202625, "▁అంగీకరించ": 235332, "▁పది": 127153, "▁аларды": 136817, "▁انجمن": 49279, "दै": 35013, "▁eel": 54358, "ကျန်": 211254, "▁verranno": 132307, "售價": 170951, "▁nabízí": 58958, "ਕਿੰਗ": 183247, "▁При": 1813, "▁tuman": 124891, "▁קיים": 139330, "▁отечестве": 164279, "▁pude": 75599, "▁natürlich": 16002, "árd": 101277, "▁Wett": 185912, "▁имени": 75674, "նենք": 143800, "MA": 8218, "▁Mala": 16522, "▁دوسروں": 196493, "ຈຸດ": 117600, "▁plyn": 79991, "▁የተሰጠ": 158005, "▁cyfrif": 131915, "お問い合わせ": 85773, "▁γαλλικ": 199162, "▁pate": 57950, "ирующие": 232190, "جاد": 96956, "▁samler": 160989, "дым": 36968, "▁დაიბადა": 233839, "▁तभी": 168626, "▁inquit": 110914, "በሬ": 173920, "▁näringsliv": 229605, "▁શ": 23326, "🆘": 247402, "▁кафедрасы": 169779, "hva": 45212, "▁selline": 86758, "५९": 179870, "▁Explica": 202466, "柯文哲": 212160, "matoanteny": 238310, "▁emlék": 83804, "▁اخ": 45124, "▁Veid": 219072, "▁ստեղծել": 110009, "▁ადგილობრივ": 204609, "fundur": 144435, "▁целый": 174723, "▁duduk": 36100, "եւի": 149328, "سین": 143099, "煤": 79005, "▁അംഗീകരിക്ക": 207016, "ായിരുന്ന": 130978, "▁saavutta": 159680, "គ្រួសារ": 100499, "▁Vak": 54032, "ђи": 38443, "▁Cysylltu": 75765, "ศิลปิน": 162909, "തിര": 37561, "▁FSX": 182726, "🚗": 246333, "▁përfunduar": 188841, "▁Vår": 31670, "▁Vent": 70946, "個": 4411, "▁جنرل": 34247, "▁лаптоп": 199144, "▁vyjde": 207164, "▁kivitel": 214322, "▁För": 5017, "뽈": 248287, "▁وعن": 119727, "▁Craig": 156201, "▁різними": 193645, "分類": 75466, "▁Dhamma": 222054, "▁evdə": 178372, "richtung": 85031, "mayacağını": 183255, "ซิตี้": 143211, "▁ашиг": 49633, "ലു": 33578, "순": 46364, "▁DHE": 111615, "▁времиња": 237504, "itve": 37404, "▁scoprire": 99668, "▁ਪਿਤਾ": 198727, "▁ก": 11070, "ദര്": 66945, "▁Moy": 107285, "▁molteplici": 224032, "▁Giorgio": 154855, "வியா": 175993, "▁CHE": 83556, "▁brukes": 47899, "byggð": 88476, "Home": 55376, "எல்": 69947, "කන්": 72547, "სერვის": 216906, "にならない": 139921, "pice": 113212, "свој": 181098, "språk": 78012, "lardır": 53977, "▁pieredzi": 148257, "▁노출": 193194, "▁Nee": 27473, "metre": 80036, "ស្រាវជ្រាវ": 178897, "lija": 51693, "guen": 74244, "超過": 25338, "ülő": 70962, "▁غلام": 42740, "▁foko": 111146, "писали": 81998, "▁freg": 183559, "▁ওয়া": 79743, "▁realizuar": 178022, "print": 35662, "▁hemû": 30192, "펌": 215369, "klej": 139306, "ပိုင်း": 48476, "▁dijangka": 180162, "▁የተነሳ": 138645, "▁phú": 123225, "▁יורק": 167541, "▁piatti": 141819, "▁колу": 68081, "娉": 248439, "▁ventil": 76285, "▁iniciar": 54061, "beidz": 154026, "▁ASEAN": 134014, "שיתוף": 81741, "▁दौर": 126348, "▁ង": 94066, "▁Bankası": 147738, "▁klientu": 121700, "▁Comunidade": 112849, "已经有": 150398, "hund": 66456, "ციები": 116927, "▁وأكد": 103469, "▁skutočne": 140204, "▁својата": 42613, "▁altid": 18893, "ījumā": 143361, "▁berbentuk": 111335, "સાય": 167384, "▁spoločnosti": 34505, "konserni": 238440, "▁evaluación": 177345, "色彩": 60312, "▁legislativ": 62289, "гра": 18143, "▁оқиға": 141089, "තින්": 115678, "▁roman": 6315, "▁நன்றி": 21081, "▁biblioteca": 38011, "▁հարակից": 238324, "▁leave": 31358, "ಿರುತ್ತವೆ": 233680, "▁natural": 6083, "▁비해": 155124, "▁povis": 98772, "╚": 245900, "ETER": 168074, "előtt": 113232, "▁seri": 37752, "の一つ": 124484, "▁svolto": 186747, "pří": 79198, "▁정치": 44837, "蔑": 244269, "▁துறை": 93420, "▁benadering": 233161, "▁хваля": 214203, "▁sculpt": 152319, "▁좋아": 67738, "บริการข่าวไทยรัฐ": 210009, "▁opinie": 90064, "▁ಸವಾಲ": 199344, "word": 47416, "셜": 131074, "လုံ": 150327, "▁ಯಾರ": 66934, "▁Маль": 192943, "ffy": 76195, "烦恼": 215442, "ნდა": 66352, "▁lovely": 113856, "▁bruge": 21537, "▁fana": 39968, "လူမျိုး": 220768, "▁ഉപയോഗിക്കുന്ന": 170339, "▁విభాగం": 233501, "駕駛": 123157, "제품": 111570, "អ្វីដែល": 219469, "भर": 20785, "leysi": 131995, "▁আগ্রহ": 232344, "▁stukje": 150345, "▁besedil": 88850, "spetsialist": 128537, "▁מאיר": 132213, "▁شوهر": 152762, "eke": 6614, "▁گفتگو": 37261, "oly": 48381, "▁वाह": 97778, "нског": 62427, "ຈໍາກັດ": 202694, "▁kli": 17665, "▁ushbu": 73271, "Kanak": 189841, "▁സോ": 66126, "▁каш": 42449, "▁Окрім": 206092, "▁некакв": 207635, "▁điên": 166246, "▁Άγιο": 137250, "nieuw": 85845, "▁actualizar": 199402, "▁ಮಾಹಿತಿ": 28920, "อเมริกา": 176537, "▁Potom": 97413, "חמישה": 201879, "ବ୍": 66030, "▁چىقىپ": 195756, "▁nggak": 43026, "စြန္႔": 234511, "▁προφίλ": 185919, "▁Hawaii": 138393, "▁negocio": 48604, "▁قام": 48933, "柔軟": 147319, "ଲି": 11218, "▁síðast": 131604, "ости": 11981, "▁quelqu": 84144, "▁Cohen": 168720, "ുന്നതില്": 209404, "▁pavirši": 172314, "▁concorrenza": 239608, "▁ker": 5244, "▁ਕੇਂਦਰ": 98286, "▁Әр": 93007, "▁બોલી": 196736, "íl": 35323, "പടി": 189452, "▁შესაძლებელია": 124371, "▁Theatre": 146613, "▁prenaša": 214256, "specialist": 181145, "▁bölgesi": 174833, "enä": 55883, "UTTA": 209920, "nome": 64970, "▁Αθήνα": 49094, "تل": 19280, "▁جلال": 70609, "▁онцлог": 175001, "álně": 60580, "čných": 33344, "फ़ी": 204139, "▁nghiện": 228666, "▁Оваа": 91753, "憋": 243414, "▁heilsu": 113928, "▁සිද්ධිය": 119980, "▁Dy": 9865, "手を": 93715, "isho": 48546, "▁detrás": 118248, "ルート": 232507, "▁ہیں": 1578, "भंग": 181656, "tsje": 70470, "▁գերազանց": 200383, "▁Ethereum": 217889, "奧": 51611, "ປະທານ": 161391, "침": 50552, "ہ": 907, "mát": 60425, "▁مسئله": 79807, "▁سکیں": 142984, "ුන": 80078, "JUM": 111392, "▁знања": 144181, "▁ажиллуул": 225100, "▁ਇੱਥੇ": 118509, "▁yaratmaq": 198103, "klen": 78556, "▁ໄດ້": 4915, "ეტ": 59931, "▁والی": 15472, "including": 216561, "ирован": 28832, "زہ": 98896, "臉": 36241, "spirit": 154336, "▁ekstrakt": 96283, "czenia": 37213, "▁მიყვარს": 167145, "ë": 1025, "~~~~~": 220802, "▁наћи": 148694, "▁дала": 74736, "ပံ": 147009, "批判": 127003, "poca": 161313, "▁Chao": 134217, "กันเลย": 177437, "▁litteris": 213762, "▁монтаж": 70583, "滑鼠": 199405, "stände": 61211, "σία": 76182, "▁ኑሮ": 206591, "ая": 3997, "▁човечеството": 242712, "▁moms": 110967, "准备好": 197140, "▁ഉത്തമ": 241076, "▁reizen": 163804, "▁пояснил": 216793, "iladi": 40631, "積極的に": 139611, "▁formu": 55987, "▁wnioski": 223162, "ሰቡ": 97757, "άρια": 98926, "▁יעיל": 200207, "בינה": 172936, "شور": 56665, "国王": 197248, "▁mekanik": 162736, "▁proteínas": 192233, "▁ಮಾಡಿದರೆ": 216367, "▁ପର୍ଯ୍ୟଟନ": 207414, "毕业生": 94356, "интерес": 72063, "έτ": 130077, "▁Quam": 116481, "▁اوږد": 148622, "▁Ustav": 119112, "▁સરખામણી": 241681, "尊": 53074, "〇": 187163, "▁ഇതൊക്കെ": 198743, "▁लाग्यो": 173838, "▁ernstig": 123283, "▁സ്വാധീന": 214925, "▁bağış": 204608, "ക്ക": 3338, "▁ఉన్నారు": 91064, "▁snáď": 229153, "▁банке": 143331, "▁ID": 11338, "▁எடுக்க": 92525, "̯": 246687, "▁attrezzature": 238883, "▁ఎక్స్": 161588, "▁iştirakçı": 173326, "ຫານ": 106310, "平時": 165580, "▁brengt": 131373, "▁технических": 199322, "▁makini": 153746, "▁nabídku": 228664, "▁სამეფო": 146442, "▁ίσως": 85451, "▁2560": 44154, "빛": 131994, "▁uppfattning": 209718, "▁семье": 104505, "▁revoca": 148366, "▁друштва": 101533, "රයක්": 133208, "සය": 119711, "တန္း": 81653, "logen": 112537, "▁qua": 2799, "▁ਧਰਤੀ": 214919, "▁pappa": 62847, "Innen": 129599, "▁bénéficie": 187678, "▁Arkitekt": 171191, "▁විෂය": 169701, "xan": 16020, "▁telepítés": 229419, "အသား": 152467, "祛": 244353, "▁darb": 66094, "ВАТ": 182436, "▁duomenimis": 178143, "ΙΑ": 30142, "▁اغوا": 175994, "▁1.7": 100920, "▁умира": 110589, "ګه": 119369, "▁նաեւ": 6747, "▁Certifi": 156559, "▁აბსოლუტურ": 231588, "▁سنجش": 176675, "▁aveți": 184682, "▁compartilhar": 187288, "mällä": 67518, "▁valutazione": 122289, "寫": 15023, "▁காவல்": 223646, "▁Arri": 64986, "▁ordusunun": 230551, "τίμ": 122291, "▁سی": 4145, "bility": 83259, "▁teologi": 93548, "zal": 14987, "▁ਨੰਬਰ": 191434, "ოტი": 148341, "▁દેખાવ": 235165, "▁sistemos": 76574, "模具": 208976, "▁ලැබෙන": 63360, "🧚": 247208, "▁தா": 19376, "अँड्र": 240792, "▁kondicion": 175209, "գել": 185086, "▁홍보": 108534, "▁abba": 62119, "▁ରାହୁଲ": 183762, "▁qenë": 20369, "▁viesti": 55538, "▁წელიწად": 176590, "▁participants": 56480, "لەي": 168320, "ましたが": 53923, "▁psiko": 181083, "اق": 6472, "▁drugem": 161056, "cino": 44924, "⇓": 246877, "mysle": 76069, "XVIII": 137442, "▁galibiyet": 207923, "▁নিয়ে": 14940, "авіч": 70369, "▁vasitələri": 136832, "nię": 43783, "▁katoličk": 231064, "ebat": 59793, "▁sygnał": 185474, "toni": 27706, "tsaka": 105234, "▁хор": 27206, "▁ايمان": 139523, "ಗಟ್ಟಿ": 226599, "▁oczekiwa": 124312, "werten": 150845, "ခဲ့ပါတယ္။": 188517, "▁појавува": 213134, "▁sëmundje": 102615, "γκλ": 212004, "▁ഓര്": 46739, "▁funcționa": 186326, "되는": 15992, "▁כנראה": 137239, "▁गर्छ": 59048, "telecom": 178838, "വര": 20737, "▁قبل": 3758, "▁hudobn": 129399, "▁خىتاي": 67591, "▁baxay": 52492, "》。": 74917, "ڙو": 54362, "▁Test": 8647, "▁fondo": 23799, "▁Enkelt": 166523, "▁imóveis": 227467, "▁بالىلار": 153025, "ʏ": 246238, "▁Rahmat": 200790, "▁имел": 108650, "▁sogn": 126777, "▁гэту": 192762, "▁کمپانی": 202270, "▁Show": 17367, "▁आनन्द": 179788, "▁Zer": 32123, "▁بهذا": 72636, "▁institucion": 77197, "▁Ին": 84699, "erő": 56790, "▁Desktop": 141423, "靦": 249563, "▁2-3": 10994, "▁ইমেইল": 150130, "▁स्त्री": 65548, "HL": 48599, "舜": 244765, "แม้จะ": 206901, "▁michuan": 198511, "մեղ": 141686, "▁Somali": 92422, "▁италиански": 217138, "▁Gestão": 154249, "▁mungkin": 8388, "gjen": 22800, "▁Chân": 205443, "▁fanampiny": 231536, "санкцион": 231378, "▁विदेशी": 70510, "конструктор": 181956, "ய்யா": 184779, "转载": 207494, "▁ಒಮ್ಮೆ": 168207, "▁මග": 76944, "▁పేర్కొన్నారు": 176190, "▁रहेको": 9242, "形态": 164242, "▁gebruikt": 32902, "Сә": 190418, "!」": 21719, "ool": 43386, "▁ضرب": 71878, "▁tambah": 62087, "▁ejemplo": 28639, "▁λύσεις": 198267, "▁ailleurs": 97867, "▁აქვთ": 98650, "▁новото": 146951, "ມາຈາກ": 210690, "▁ishla": 78743, "▁παραγγελία": 240646, "տե": 81017, "▁Крім": 60117, "лийг": 53899, "口味": 96982, "褲": 83162, "▁πολιτικών": 190591, "▁виставки": 217293, "矛盾": 60989, "▁fylgd": 234687, "5.1": 156627, "▁mondjuk": 188962, "😝": 245278, "ደራጀ": 222147, "▁korban": 57935, "▁უცხო": 85770, "ابر": 99551, "හේ": 54144, "▁Societat": 97392, "矜": 245570, "同期": 137279, "▁Gør": 169191, "▁முக": 71987, "ፌዴሬሽን": 215310, "▁СБУ": 180665, "▁нео": 33762, "▁lux": 44752, "kännande": 215208, "▁compañero": 231476, "▁Maxkamad": 195319, "弊社": 98290, "▁международни": 143508, "СД": 166250, "▁причине": 89574, "fuata": 75914, "धी": 28380, "▁ច": 35658, "▁teroriz": 193406, "▁pirmā": 84307, "gg": 9815, "誤解": 217848, "Фараби": 224454, "ದಲ್ಲೂ": 205177, "方案": 18628, "▁غاية": 208929, "▁blízko": 169252, "带来了": 96067, "ენის": 81659, "წერა": 79140, "▁merasakan": 67989, "▁పుస్తకాలు": 197922, "▁постигна": 131968, "lagay": 89315, "ափոխ": 91223, "නේ": 13748, "▁kender": 89119, "▁verzorgd": 195330, "▁ବିସ୍ଫୋରଣ": 241682, "▁včel": 215261, "take": 78219, "ռ": 20344, "أكل": 152245, "▁smrt": 58277, "▁3.4": 104271, "▁ανάγκη": 85832, "સ્": 29392, "分": 1583, "▁případně": 187218, "▁Thu": 12613, "▁prysznic": 218821, "hyl": 65853, "▁dihubungi": 195238, "▁stanno": 78827, "▁فضلا": 152097, "▁årstid": 203352, "▁Wij": 13516, "okkal": 20490, "ис": 9685, "jant": 54262, "▁Alex": 20984, "▁coordona": 182985, "ଚନ୍ଦ୍ର": 230651, "▁NHÂN": 221019, "▁Tôn": 158884, "ਬੀਰ": 160110, "algo": 100628, "▁megold": 140925, "参": 27644, "▁všech": 38587, "ត្ដ": 168973, "▁טראמפ": 120446, "bug": 85779, "▁товари": 67730, "▁ତଥ୍ୟ": 150431, "濕": 73621, "▁města": 63621, "▁ск": 54087, "▁જેવો": 217662, "▁धूप": 239494, "▁Azken": 60749, "ລາ": 48660, "гат": 59632, "▁perthnasol": 213118, "▁guerra": 20026, "▁vende": 28475, "▁പോരാട്ട": 233703, "▁kontrol": 7619, "▁ქართლ": 163276, "▁bambino": 90315, "მალ": 97359, "▁cabeça": 68017, "▁актыўны": 220690, "▁બેઠક": 132127, "▁Scot": 155400, "kku": 16027, "狀況": 46879, "▁MỚI": 220912, "▁మే": 22290, "▁ይኼ": 228012, "▁Ebrill": 189268, "▁ତେଣୁ": 114040, "▁നന്ദി": 40757, "際に": 143634, "▁башта": 63746, "gelt": 103789, "▁институц": 203715, "▁ережесі": 231676, "परिषद": 234814, "▁хороолол": 229205, "ulo": 10391, "▁રંગ": 108109, "▁Азаттык": 56225, "iş": 9237, "▁исклучиво": 229250, "▁marxa": 92407, "▁কালো": 144736, "▁ESO": 113526, "▁(35)": 105557, "Ւ": 243607, "▁Україною": 184196, "▁bereit": 49837, "▁سار": 81107, "ycznie": 151896, "▁Ова": 23235, "▁Star": 4612, "▁acid": 43840, "ຂ້າມ": 214359, "▁Visu": 98619, "▁mengerti": 109506, "▁1940": 27712, "▁Alternativ": 82569, "▁Úvodní": 160619, "▁pevný": 196371, "لتنمية": 198606, "ចេះ": 122270, "מניה": 151620, "▁mange": 2918, "▁DALAM": 111966, "▁అక్షర": 188034, "dila": 42460, "▁ווער": 96234, "buruk": 165148, "▁;-)": 25626, "▁꽃": 100684, "॒": 34381, "▁Venkata": 175875, "▁بولدى": 91168, "分かりません": 220300, "DIS": 133697, "▁ਹਾਸਲ": 221472, "▁حجم": 39448, "▁pierwszy": 44394, "▁prosiect": 135070, "idée": 72013, "чихсан": 207154, "lando": 34446, "terie": 126326, "▁पैसे": 68954, "升級": 114764, "kå": 109438, "▁olhos": 74417, "▁tina": 49864, "▁veicināt": 196302, "ά": 1206, "▁තියෙන්නේ": 44304, "ək": 22393, "▁الطبيعية": 142983, "▁imparare": 164011, "inių": 6455, "דירות": 80346, "▁pradeda": 121888, "Team": 101409, "▁6)": 35914, "▁personnel": 35768, "播放": 57987, "쁠": 246024, "▁preţ": 150549, "▁የኢህአዴግ": 209341, "▁확정": 198698, "▁directiva": 188282, "▁кыздар": 123543, "రొ": 131735, "▁percaya": 34471, "鏞": 247347, "▁esok": 139990, "掸": 247629, "pung": 58187, "▁vegg": 103707, "ТЬ": 99852, "▁Как": 5187, "schoenen": 137564, "架构": 198611, "摂取": 131852, "▁cousa": 128869, "iese": 22627, "▁ಸೌ": 128078, ":34": 30197, "▁economico": 95160, "▁금융": 107063, "▁derniers": 103072, "tés": 16681, "▁тауып": 219705, "▁ടീം": 195297, "▁الرأس": 169348, "देखील": 209023, "ەتتى": 105587, "logitekstit": 232775, "ಸಿಸಿ": 160455, "▁должен": 15856, "syk": 43141, "९५": 185521, "另一个": 83757, "▁රබල": 196585, "▁ынтымақтастық": 176586, "▁Králové": 131093, "▁почала": 194179, "entibus": 84545, "ಗಡ": 173826, "的感觉": 75106, "▁01.01.": 169614, "▁nava": 39403, "toiminnan": 115644, "▁փուլում": 211102, "▁руска": 175569, "▁партньор": 105738, "▁συνέχεια": 53152, "▁yaptı": 38837, "strategi": 41062, "悉": 127700, "▁Magas": 163757, "▁bay": 9118, "కో": 14502, "ณฑ": 170226, "▁ນະ": 85281, "מידת": 218264, "▁Рат": 132497, "▁maí": 79764, "▁شلوار": 222065, "▁קשה": 56537, "▁радыё": 184622, "▁veřejnost": 172627, "ପ୍ରାପ୍ତ": 185935, "いただきました": 99065, "櫓": 248895, "特点": 95242, "▁کہ": 924, "▁Provin": 146943, "▁shunday": 82150, "▁لعبة": 91054, "▁kokonais": 63452, "▁გარე": 123338, "tzaileak": 101788, "ກໍາ": 58619, "▁Savukārt": 118044, "▁Nebo": 114365, "▁кра": 7774, "ทําไม": 119571, "▁ماڻهن": 35886, "▁Respublikos": 78476, "▁نخبگان": 241000, "ETİ": 159664, "▁cauza": 32681, "▁කර": 3880, "άτ": 87425, "▁postul": 49489, "▁ਸ਼ਾਹ": 170324, "▁krye": 42388, "▁Protección": 162759, "▁жада": 101431, "▁AH": 67909, "▁remboursement": 217472, "esercizio": 132296, "지지": 123658, "▁Hizb": 223809, "VET": 90475, "▁dignissim": 39231, "▁Ամեն": 113124, "▁oito": 104714, "▁անց": 36165, ":33": 31191, "graduação": 189454, "tră": 42519, "غور": 150569, "ดั": 165873, "레스": 120753, "▁prem": 26787, "砚": 246724, "▁ಇಂಡಿಯನ್": 239241, "▁aeronave": 222764, "▁Ди": 12769, "ٽو": 99567, "▁towarzysz": 118729, "ेत": 28722, "라운지": 241468, "▁guerre": 53953, "▁tothom": 97270, "▁টুইটার": 233457, "▁акціонер": 208288, "▁ଘରୋଇ": 191414, "▁Spiritu": 88992, "▁yığ": 83743, "▁varžybos": 204759, "▁סט": 48706, "▁UNA": 86741, "▁ખરાબ": 189325, "▁가진": 83590, "▁κάποιον": 186965, "▁recoll": 97095, "ㄞ": 248472, "▁proxecto": 25974, "받": 249987, "찍": 224207, "▁zvon": 122865, "▁bildene": 113120, "▁meva": 56288, "▁Klang": 163205, "挈": 248905, "▁мисли": 34737, "出貨": 179413, "▁является": 9395, "ใช่": 95291, "▁хууль": 26132, "κ": 4709, "▁går": 3278, "kondu": 164851, "▁prodhim": 128344, "▁কার্য": 221189, "虏": 245326, "所做的": 209881, "起了": 75221, "พร้อมกับ": 95105, "lago": 69985, "▁огне": 150927, "▁hài": 65861, "▁එක්": 20977, "Энх": 138204, "琨": 246287, "▁vostri": 114145, "認同": 164234, "学院": 18111, "▁अधिनियम": 221448, "▁Sampeyan": 242647, "▁શૂટ": 224961, "kelet": 145482, "▁डिभिजन": 191848, "▁udgivet": 185079, "▁Turbo": 102228, "▁orokorra": 230136, "७६": 157345,
[...]
